{"version":"1.0","truncation":null,"padding":null,"added_tokens":[{"id":0,"special":true,"content":"<s>","single_word":false,"lstrip":false,"rstrip":false,"normalized":false},{"id":1,"special":true,"content":"</s>","single_word":false,"lstrip":false,"rstrip":false,"normalized":false},{"id":2,"special":true,"content":"<usr>","single_word":false,"lstrip":false,"rstrip":false,"normalized":false},{"id":3,"special":true,"content":"<pad>","single_word":false,"lstrip":false,"rstrip":false,"normalized":false},{"id":4,"special":true,"content":"<sys>","single_word":false,"lstrip":false,"rstrip":false,"normalized":false},{"id":5,"special":true,"content":"<unk>","single_word":false,"lstrip":false,"rstrip":false,"normalized":false},{"id":6,"special":true,"content":"<mask>","single_word":false,"lstrip":false,"rstrip":false,"normalized":false},{"id":7,"special":true,"content":"<d>","single_word":false,"lstrip":false,"rstrip":false,"normalized":false},{"id":8,"special":true,"content":"</d>","single_word":false,"lstrip":false,"rstrip":false,"normalized":false},{"id":9,"special":true,"content":"<unused0>","single_word":false,"lstrip":false,"rstrip":false,"normalized":false},{"id":10,"special":true,"content":"<unused1>","single_word":false,"lstrip":false,"rstrip":false,"normalized":false},{"id":11,"special":true,"content":"<unused2>","single_word":false,"lstrip":false,"rstrip":false,"normalized":false},{"id":12,"special":true,"content":"<unused3>","single_word":false,"lstrip":false,"rstrip":false,"normalized":false},{"id":13,"special":true,"content":"<unused4>","single_word":false,"lstrip":false,"rstrip":false,"normalized":false},{"id":14,"special":true,"content":"<unused5>","single_word":false,"lstrip":false,"rstrip":false,"normalized":false},{"id":15,"special":true,"content":"<unused6>","single_word":false,"lstrip":false,"rstrip":false,"normalized":false},{"id":16,"special":true,"content":"<unused7>","single_word":false,"lstrip":false,"rstrip":false,"normalized":false},{"id":17,"special":true,"content":"<unused8>","single_word":false,"lstrip":false,"rstrip":false,"normalized":false},{"id":18,"special":true,"content":"<unused9>","single_word":false,"lstrip":false,"rstrip":false,"normalized":false},{"id":19,"special":true,"content":"<unused10>","single_word":false,"lstrip":false,"rstrip":false,"normalized":false},{"id":20,"special":true,"content":"<unused11>","single_word":false,"lstrip":false,"rstrip":false,"normalized":false},{"id":21,"special":true,"content":"<unused12>","single_word":false,"lstrip":false,"rstrip":false,"normalized":false},{"id":22,"special":true,"content":"<unused13>","single_word":false,"lstrip":false,"rstrip":false,"normalized":false},{"id":23,"special":true,"content":"<unused14>","single_word":false,"lstrip":false,"rstrip":false,"normalized":false},{"id":24,"special":true,"content":"<unused15>","single_word":false,"lstrip":false,"rstrip":false,"normalized":false},{"id":25,"special":true,"content":"<unused16>","single_word":false,"lstrip":false,"rstrip":false,"normalized":false},{"id":26,"special":true,"content":"<unused17>","single_word":false,"lstrip":false,"rstrip":false,"normalized":false},{"id":27,"special":true,"content":"<unused18>","single_word":false,"lstrip":false,"rstrip":false,"normalized":false},{"id":28,"special":true,"content":"<unused19>","single_word":false,"lstrip":false,"rstrip":false,"normalized":false},{"id":29,"special":true,"content":"<unused20>","single_word":false,"lstrip":false,"rstrip":false,"normalized":false},{"id":30,"special":true,"content":"<unused21>","single_word":false,"lstrip":false,"rstrip":false,"normalized":false},{"id":31,"special":true,"content":"<unused22>","single_word":false,"lstrip":false,"rstrip":false,"normalized":false},{"id":32,"special":true,"content":"<unused23>","single_word":false,"lstrip":false,"rstrip":false,"normalized":false},{"id":33,"special":true,"content":"<unused24>","single_word":false,"lstrip":false,"rstrip":false,"normalized":false},{"id":34,"special":true,"content":"<unused25>","single_word":false,"lstrip":false,"rstrip":false,"normalized":false},{"id":35,"special":true,"content":"<unused26>","single_word":false,"lstrip":false,"rstrip":false,"normalized":false},{"id":36,"special":true,"content":"<unused27>","single_word":false,"lstrip":false,"rstrip":false,"normalized":false},{"id":37,"special":true,"content":"<unused28>","single_word":false,"lstrip":false,"rstrip":false,"normalized":false},{"id":38,"special":true,"content":"<unused29>","single_word":false,"lstrip":false,"rstrip":false,"normalized":false},{"id":39,"special":true,"content":"<unused30>","single_word":false,"lstrip":false,"rstrip":false,"normalized":false},{"id":40,"special":true,"content":"<unused31>","single_word":false,"lstrip":false,"rstrip":false,"normalized":false},{"id":41,"special":true,"content":"<unused32>","single_word":false,"lstrip":false,"rstrip":false,"normalized":false},{"id":42,"special":true,"content":"<unused33>","single_word":false,"lstrip":false,"rstrip":false,"normalized":false},{"id":43,"special":true,"content":"<unused34>","single_word":false,"lstrip":false,"rstrip":false,"normalized":false},{"id":44,"special":true,"content":"<unused35>","single_word":false,"lstrip":false,"rstrip":false,"normalized":false},{"id":45,"special":true,"content":"<unused36>","single_word":false,"lstrip":false,"rstrip":false,"normalized":false},{"id":46,"special":true,"content":"<unused37>","single_word":false,"lstrip":false,"rstrip":false,"normalized":false},{"id":47,"special":true,"content":"<unused38>","single_word":false,"lstrip":false,"rstrip":false,"normalized":false},{"id":48,"special":true,"content":"<unused39>","single_word":false,"lstrip":false,"rstrip":false,"normalized":false},{"id":49,"special":true,"content":"<unused40>","single_word":false,"lstrip":false,"rstrip":false,"normalized":false},{"id":50,"special":true,"content":"<unused41>","single_word":false,"lstrip":false,"rstrip":false,"normalized":false},{"id":51,"special":true,"content":"<unused42>","single_word":false,"lstrip":false,"rstrip":false,"normalized":false},{"id":52,"special":true,"content":"<unused43>","single_word":false,"lstrip":false,"rstrip":false,"normalized":false},{"id":53,"special":true,"content":"<unused44>","single_word":false,"lstrip":false,"rstrip":false,"normalized":false},{"id":54,"special":true,"content":"<unused45>","single_word":false,"lstrip":false,"rstrip":false,"normalized":false},{"id":55,"special":true,"content":"<unused46>","single_word":false,"lstrip":false,"rstrip":false,"normalized":false},{"id":56,"special":true,"content":"<unused47>","single_word":false,"lstrip":false,"rstrip":false,"normalized":false},{"id":57,"special":true,"content":"<unused48>","single_word":false,"lstrip":false,"rstrip":false,"normalized":false},{"id":58,"special":true,"content":"<unused49>","single_word":false,"lstrip":false,"rstrip":false,"normalized":false},{"id":59,"special":true,"content":"<unused50>","single_word":false,"lstrip":false,"rstrip":false,"normalized":false},{"id":60,"special":true,"content":"<unused51>","single_word":false,"lstrip":false,"rstrip":false,"normalized":false},{"id":61,"special":true,"content":"<unused52>","single_word":false,"lstrip":false,"rstrip":false,"normalized":false},{"id":62,"special":true,"content":"<unused53>","single_word":false,"lstrip":false,"rstrip":false,"normalized":false},{"id":63,"special":true,"content":"<unused54>","single_word":false,"lstrip":false,"rstrip":false,"normalized":false},{"id":64,"special":true,"content":"<unused55>","single_word":false,"lstrip":false,"rstrip":false,"normalized":false},{"id":65,"special":true,"content":"<unused56>","single_word":false,"lstrip":false,"rstrip":false,"normalized":false},{"id":66,"special":true,"content":"<unused57>","single_word":false,"lstrip":false,"rstrip":false,"normalized":false},{"id":67,"special":true,"content":"<unused58>","single_word":false,"lstrip":false,"rstrip":false,"normalized":false},{"id":68,"special":true,"content":"<unused59>","single_word":false,"lstrip":false,"rstrip":false,"normalized":false},{"id":69,"special":true,"content":"<unused60>","single_word":false,"lstrip":false,"rstrip":false,"normalized":false},{"id":70,"special":true,"content":"<unused61>","single_word":false,"lstrip":false,"rstrip":false,"normalized":false},{"id":71,"special":true,"content":"<unused62>","single_word":false,"lstrip":false,"rstrip":false,"normalized":false},{"id":72,"special":true,"content":"<unused63>","single_word":false,"lstrip":false,"rstrip":false,"normalized":false},{"id":73,"special":true,"content":"<unused64>","single_word":false,"lstrip":false,"rstrip":false,"normalized":false},{"id":74,"special":true,"content":"<unused65>","single_word":false,"lstrip":false,"rstrip":false,"normalized":false},{"id":75,"special":true,"content":"<unused66>","single_word":false,"lstrip":false,"rstrip":false,"normalized":false},{"id":76,"special":true,"content":"<unused67>","single_word":false,"lstrip":false,"rstrip":false,"normalized":false},{"id":77,"special":true,"content":"<unused68>","single_word":false,"lstrip":false,"rstrip":false,"normalized":false},{"id":78,"special":true,"content":"<unused69>","single_word":false,"lstrip":false,"rstrip":false,"normalized":false},{"id":79,"special":true,"content":"<unused70>","single_word":false,"lstrip":false,"rstrip":false,"normalized":false},{"id":80,"special":true,"content":"<unused71>","single_word":false,"lstrip":false,"rstrip":false,"normalized":false},{"id":81,"special":true,"content":"<unused72>","single_word":false,"lstrip":false,"rstrip":false,"normalized":false},{"id":82,"special":true,"content":"<unused73>","single_word":false,"lstrip":false,"rstrip":false,"normalized":false},{"id":83,"special":true,"content":"<unused74>","single_word":false,"lstrip":false,"rstrip":false,"normalized":false},{"id":84,"special":true,"content":"<unused75>","single_word":false,"lstrip":false,"rstrip":false,"normalized":false},{"id":85,"special":true,"content":"<unused76>","single_word":false,"lstrip":false,"rstrip":false,"normalized":false},{"id":86,"special":true,"content":"<unused77>","single_word":false,"lstrip":false,"rstrip":false,"normalized":false},{"id":87,"special":true,"content":"<unused78>","single_word":false,"lstrip":false,"rstrip":false,"normalized":false},{"id":88,"special":true,"content":"<unused79>","single_word":false,"lstrip":false,"rstrip":false,"normalized":false},{"id":89,"special":true,"content":"<unused80>","single_word":false,"lstrip":false,"rstrip":false,"normalized":false},{"id":90,"special":true,"content":"<unused81>","single_word":false,"lstrip":false,"rstrip":false,"normalized":false},{"id":91,"special":true,"content":"<unused82>","single_word":false,"lstrip":false,"rstrip":false,"normalized":false},{"id":92,"special":true,"content":"<unused83>","single_word":false,"lstrip":false,"rstrip":false,"normalized":false},{"id":93,"special":true,"content":"<unused84>","single_word":false,"lstrip":false,"rstrip":false,"normalized":false},{"id":94,"special":true,"content":"<unused85>","single_word":false,"lstrip":false,"rstrip":false,"normalized":false},{"id":95,"special":true,"content":"<unused86>","single_word":false,"lstrip":false,"rstrip":false,"normalized":false},{"id":96,"special":true,"content":"<unused87>","single_word":false,"lstrip":false,"rstrip":false,"normalized":false},{"id":97,"special":true,"content":"<unused88>","single_word":false,"lstrip":false,"rstrip":false,"normalized":false},{"id":98,"special":true,"content":"<unused89>","single_word":false,"lstrip":false,"rstrip":false,"normalized":false},{"id":99,"special":true,"content":"<unused90>","single_word":false,"lstrip":false,"rstrip":false,"normalized":false},{"id":100,"special":true,"content":"<unused91>","single_word":false,"lstrip":false,"rstrip":false,"normalized":false},{"id":101,"special":true,"content":"<unused92>","single_word":false,"lstrip":false,"rstrip":false,"normalized":false},{"id":102,"special":true,"content":"<unused93>","single_word":false,"lstrip":false,"rstrip":false,"normalized":false},{"id":103,"special":true,"content":"<unused94>","single_word":false,"lstrip":false,"rstrip":false,"normalized":false},{"id":104,"special":true,"content":"<unused95>","single_word":false,"lstrip":false,"rstrip":false,"normalized":false},{"id":105,"special":true,"content":"<unused96>","single_word":false,"lstrip":false,"rstrip":false,"normalized":false},{"id":106,"special":true,"content":"<unused97>","single_word":false,"lstrip":false,"rstrip":false,"normalized":false},{"id":107,"special":true,"content":"<unused98>","single_word":false,"lstrip":false,"rstrip":false,"normalized":false},{"id":108,"special":true,"content":"<unused99>","single_word":false,"lstrip":false,"rstrip":false,"normalized":false},{"id":109,"special":true,"content":":-)","single_word":false,"lstrip":false,"rstrip":false,"normalized":false},{"id":110,"special":true,"content":":)","single_word":false,"lstrip":false,"rstrip":false,"normalized":false},{"id":111,"special":true,"content":"-)","single_word":false,"lstrip":false,"rstrip":false,"normalized":false},{"id":112,"special":true,"content":"(-:","single_word":false,"lstrip":false,"rstrip":false,"normalized":false},{"id":113,"special":true,"content":"(:-)","single_word":false,"lstrip":false,"rstrip":false,"normalized":false},{"id":114,"special":true,"content":"(:-(","single_word":false,"lstrip":false,"rstrip":false,"normalized":false},{"id":115,"special":true,"content":"-}","single_word":false,"lstrip":false,"rstrip":false,"normalized":false},{"id":116,"special":true,"content":"8-O","single_word":false,"lstrip":false,"rstrip":false,"normalized":false},{"id":117,"special":true,"content":"'-)","single_word":false,"lstrip":false,"rstrip":false,"normalized":false},{"id":118,"special":true,"content":":-#","single_word":false,"lstrip":false,"rstrip":false,"normalized":false},{"id":119,"special":true,"content":":-*","single_word":false,"lstrip":false,"rstrip":false,"normalized":false},{"id":120,"special":true,"content":":-/","single_word":false,"lstrip":false,"rstrip":false,"normalized":false},{"id":121,"special":true,"content":":->","single_word":false,"lstrip":false,"rstrip":false,"normalized":false},{"id":122,"special":true,"content":":-@","single_word":false,"lstrip":false,"rstrip":false,"normalized":false},{"id":123,"special":true,"content":":-d","single_word":false,"lstrip":false,"rstrip":false,"normalized":false},{"id":124,"special":true,"content":":-V","single_word":false,"lstrip":false,"rstrip":false,"normalized":false},{"id":125,"special":true,"content":":-X","single_word":false,"lstrip":false,"rstrip":false,"normalized":false},{"id":126,"special":true,"content":":-\\","single_word":false,"lstrip":false,"rstrip":false,"normalized":false},{"id":127,"special":true,"content":":-]","single_word":false,"lstrip":false,"rstrip":false,"normalized":false},{"id":128,"special":true,"content":";-(","single_word":false,"lstrip":false,"rstrip":false,"normalized":false},{"id":129,"special":true,"content":">;->","single_word":false,"lstrip":false,"rstrip":false,"normalized":false},{"id":130,"special":true,"content":";^)","single_word":false,"lstrip":false,"rstrip":false,"normalized":false},{"id":131,"special":true,"content":"%-)","single_word":false,"lstrip":false,"rstrip":false,"normalized":false},{"id":132,"special":true,"content":"):-(","single_word":false,"lstrip":false,"rstrip":false,"normalized":false},{"id":133,"special":true,"content":"3:]","single_word":false,"lstrip":false,"rstrip":false,"normalized":false},{"id":134,"special":true,"content":":-&","single_word":false,"lstrip":false,"rstrip":false,"normalized":false},{"id":135,"special":true,"content":"8:-)","single_word":false,"lstrip":false,"rstrip":false,"normalized":false},{"id":136,"special":true,"content":":-)8<","single_word":false,"lstrip":false,"rstrip":false,"normalized":false},{"id":137,"special":true,"content":":-O","single_word":false,"lstrip":false,"rstrip":false,"normalized":false},{"id":138,"special":true,"content":":-6","single_word":false,"lstrip":false,"rstrip":false,"normalized":false},{"id":139,"special":true,"content":"+:-)","single_word":false,"lstrip":false,"rstrip":false,"normalized":false},{"id":140,"special":true,"content":"O:-)","single_word":false,"lstrip":false,"rstrip":false,"normalized":false},{"id":141,"special":true,"content":":-<","single_word":false,"lstrip":false,"rstrip":false,"normalized":false},{"id":142,"special":true,"content":":-?","single_word":false,"lstrip":false,"rstrip":false,"normalized":false},{"id":143,"special":true,"content":":-E","single_word":false,"lstrip":false,"rstrip":false,"normalized":false},{"id":144,"special":true,"content":":-Q","single_word":false,"lstrip":false,"rstrip":false,"normalized":false},{"id":145,"special":true,"content":":-}X","single_word":false,"lstrip":false,"rstrip":false,"normalized":false},{"id":146,"special":true,"content":":-[","single_word":false,"lstrip":false,"rstrip":false,"normalized":false},{"id":147,"special":true,"content":":-a","single_word":false,"lstrip":false,"rstrip":false,"normalized":false},{"id":148,"special":true,"content":":-{","single_word":false,"lstrip":false,"rstrip":false,"normalized":false},{"id":149,"special":true,"content":":-{}","single_word":false,"lstrip":false,"rstrip":false,"normalized":false},{"id":150,"special":true,"content":":^)","single_word":false,"lstrip":false,"rstrip":false,"normalized":false},{"id":151,"special":true,"content":"<:-l","single_word":false,"lstrip":false,"rstrip":false,"normalized":false},{"id":152,"special":true,"content":":=)","single_word":false,"lstrip":false,"rstrip":false,"normalized":false},{"id":153,"special":true,"content":">:->","single_word":false,"lstrip":false,"rstrip":false,"normalized":false},{"id":154,"special":true,"content":">:-l","single_word":false,"lstrip":false,"rstrip":false,"normalized":false},{"id":155,"special":true,"content":"@:-)","single_word":false,"lstrip":false,"rstrip":false,"normalized":false},{"id":156,"special":true,"content":"@:-}","single_word":false,"lstrip":false,"rstrip":false,"normalized":false},{"id":157,"special":true,"content":"C=:-)","single_word":false,"lstrip":false,"rstrip":false,"normalized":false},{"id":158,"special":true,"content":"X:-)","single_word":false,"lstrip":false,"rstrip":false,"normalized":false},{"id":159,"special":true,"content":"[:-)","single_word":false,"lstrip":false,"rstrip":false,"normalized":false},{"id":160,"special":true,"content":"[:]","single_word":false,"lstrip":false,"rstrip":false,"normalized":false},{"id":161,"special":true,"content":"{:-)","single_word":false,"lstrip":false,"rstrip":false,"normalized":false},{"id":162,"special":true,"content":"l^o","single_word":false,"lstrip":false,"rstrip":false,"normalized":false},{"id":163,"special":true,"content":"}:^#)","single_word":false,"lstrip":false,"rstrip":false,"normalized":false},{"id":164,"special":true,"content":":-(=)","single_word":false,"lstrip":false,"rstrip":false,"normalized":false},{"id":165,"special":true,"content":"O-)","single_word":false,"lstrip":false,"rstrip":false,"normalized":false},{"id":166,"special":true,"content":":-3","single_word":false,"lstrip":false,"rstrip":false,"normalized":false},{"id":167,"special":true,"content":":=","single_word":false,"lstrip":false,"rstrip":false,"normalized":false},{"id":168,"special":true,"content":":-\"","single_word":false,"lstrip":false,"rstrip":false,"normalized":false},{"id":169,"special":true,"content":"P-(","single_word":false,"lstrip":false,"rstrip":false,"normalized":false},{"id":170,"special":true,"content":"?-(","single_word":false,"lstrip":false,"rstrip":false,"normalized":false},{"id":171,"special":true,"content":"d:-)","single_word":false,"lstrip":false,"rstrip":false,"normalized":false},{"id":172,"special":true,"content":":8)","single_word":false,"lstrip":false,"rstrip":false,"normalized":false},{"id":173,"special":true,"content":":-7","single_word":false,"lstrip":false,"rstrip":false,"normalized":false},{"id":174,"special":true,"content":"):-)","single_word":false,"lstrip":false,"rstrip":false,"normalized":false},{"id":175,"special":true,"content":":/\\)","single_word":false,"lstrip":false,"rstrip":false,"normalized":false},{"id":176,"special":true,"content":"8(:-)","single_word":false,"lstrip":false,"rstrip":false,"normalized":false},{"id":177,"special":true,"content":"([(","single_word":false,"lstrip":false,"rstrip":false,"normalized":false},{"id":178,"special":true,"content":":-(*)","single_word":false,"lstrip":false,"rstrip":false,"normalized":false},{"id":179,"special":true,"content":"&-l","single_word":false,"lstrip":false,"rstrip":false,"normalized":false},{"id":180,"special":true,"content":":-e","single_word":false,"lstrip":false,"rstrip":false,"normalized":false},{"id":181,"special":true,"content":":(","single_word":false,"lstrip":false,"rstrip":false,"normalized":false},{"id":182,"special":true,"content":":,(","single_word":false,"lstrip":false,"rstrip":false,"normalized":false},{"id":183,"special":true,"content":":-(","single_word":false,"lstrip":false,"rstrip":false,"normalized":false},{"id":184,"special":true,"content":":-P","single_word":false,"lstrip":false,"rstrip":false,"normalized":false},{"id":185,"special":true,"content":":-S","single_word":false,"lstrip":false,"rstrip":false,"normalized":false},{"id":186,"special":true,"content":":-C","single_word":false,"lstrip":false,"rstrip":false,"normalized":false},{"id":187,"special":true,"content":":-r","single_word":false,"lstrip":false,"rstrip":false,"normalized":false},{"id":188,"special":true,"content":":-t","single_word":false,"lstrip":false,"rstrip":false,"normalized":false},{"id":189,"special":true,"content":":-W","single_word":false,"lstrip":false,"rstrip":false,"normalized":false},{"id":190,"special":true,"content":"X-(","single_word":false,"lstrip":false,"rstrip":false,"normalized":false},{"id":191,"special":true,"content":"l-O","single_word":false,"lstrip":false,"rstrip":false,"normalized":false},{"id":192,"special":true,"content":"l:-O","single_word":false,"lstrip":false,"rstrip":false,"normalized":false},{"id":193,"special":true,"content":"$-)","single_word":false,"lstrip":false,"rstrip":false,"normalized":false},{"id":194,"special":true,"content":":-!","single_word":false,"lstrip":false,"rstrip":false,"normalized":false},{"id":195,"special":true,"content":":----}","single_word":false,"lstrip":false,"rstrip":false,"normalized":false},{"id":196,"special":true,"content":"=:-)","single_word":false,"lstrip":false,"rstrip":false,"normalized":false},{"id":197,"special":true,"content":"=:-(","single_word":false,"lstrip":false,"rstrip":false,"normalized":false},{"id":198,"special":true,"content":"3:[","single_word":false,"lstrip":false,"rstrip":false,"normalized":false},{"id":199,"special":true,"content":"8<:-)","single_word":false,"lstrip":false,"rstrip":false,"normalized":false},{"id":200,"special":true,"content":":#)","single_word":false,"lstrip":false,"rstrip":false,"normalized":false},{"id":201,"special":true,"content":"8-#","single_word":false,"lstrip":false,"rstrip":false,"normalized":false},{"id":202,"special":true,"content":"B-)","single_word":false,"lstrip":false,"rstrip":false,"normalized":false},{"id":203,"special":true,"content":"8-)","single_word":false,"lstrip":false,"rstrip":false,"normalized":false},{"id":204,"special":true,"content":"|-(","single_word":false,"lstrip":false,"rstrip":false,"normalized":false},{"id":205,"special":true,"content":"H-)","single_word":false,"lstrip":false,"rstrip":false,"normalized":false},{"id":206,"special":true,"content":"]-I","single_word":false,"lstrip":false,"rstrip":false,"normalized":false},{"id":207,"special":true,"content":"V^J","single_word":false,"lstrip":false,"rstrip":false,"normalized":false},{"id":208,"special":true,"content":"+-(","single_word":false,"lstrip":false,"rstrip":false,"normalized":false},{"id":209,"special":true,"content":"~:-P","single_word":false,"lstrip":false,"rstrip":false,"normalized":false},{"id":210,"special":true,"content":"`'","single_word":false,"lstrip":false,"rstrip":false,"normalized":false},{"id":211,"special":true,"content":"L-P","single_word":false,"lstrip":false,"rstrip":false,"normalized":false},{"id":212,"special":true,"content":"BI","single_word":false,"lstrip":false,"rstrip":false,"normalized":false},{"id":213,"special":true,"content":"O|","single_word":false,"lstrip":false,"rstrip":false,"normalized":false},{"id":214,"special":true,"content":"^^","single_word":false,"lstrip":false,"rstrip":false,"normalized":false},{"id":215,"special":true,"content":"ㅜㅜ","single_word":false,"lstrip":false,"rstrip":false,"normalized":false},{"id":216,"special":true,"content":"ㅠㅠ","single_word":false,"lstrip":false,"rstrip":false,"normalized":false},{"id":217,"special":true,"content":"ㅡㅡ","single_word":false,"lstrip":false,"rstrip":false,"normalized":false},{"id":218,"special":true,"content":"😠","single_word":false,"lstrip":false,"rstrip":false,"normalized":false},{"id":219,"special":true,"content":"👿","single_word":false,"lstrip":false,"rstrip":false,"normalized":false},{"id":220,"special":true,"content":"😧","single_word":false,"lstrip":false,"rstrip":false,"normalized":false},{"id":221,"special":true,"content":"😰","single_word":false,"lstrip":false,"rstrip":false,"normalized":false},{"id":222,"special":true,"content":"😲","single_word":false,"lstrip":false,"rstrip":false,"normalized":false},{"id":223,"special":true,"content":"😁","single_word":false,"lstrip":false,"rstrip":false,"normalized":false},{"id":224,"special":true,"content":"🐻","single_word":false,"lstrip":false,"rstrip":false,"normalized":false},{"id":225,"special":true,"content":"🐱","single_word":false,"lstrip":false,"rstrip":false,"normalized":false},{"id":226,"special":true,"content":"😹","single_word":false,"lstrip":false,"rstrip":false,"normalized":false},{"id":227,"special":true,"content":"😼","single_word":false,"lstrip":false,"rstrip":false,"normalized":false},{"id":228,"special":true,"content":"🤡","single_word":false,"lstrip":false,"rstrip":false,"normalized":false},{"id":229,"special":true,"content":"🥶","single_word":false,"lstrip":false,"rstrip":false,"normalized":false},{"id":230,"special":true,"content":"😖","single_word":false,"lstrip":false,"rstrip":false,"normalized":false},{"id":231,"special":true,"content":"😕","single_word":false,"lstrip":false,"rstrip":false,"normalized":false},{"id":232,"special":true,"content":"🐮","single_word":false,"lstrip":false,"rstrip":false,"normalized":false},{"id":233,"special":true,"content":"🤠","single_word":false,"lstrip":false,"rstrip":false,"normalized":false},{"id":234,"special":true,"content":"😿","single_word":false,"lstrip":false,"rstrip":false,"normalized":false},{"id":235,"special":true,"content":"😢","single_word":false,"lstrip":false,"rstrip":false,"normalized":false},{"id":236,"special":true,"content":"😞","single_word":false,"lstrip":false,"rstrip":false,"normalized":false},{"id":237,"special":true,"content":"😵","single_word":false,"lstrip":false,"rstrip":false,"normalized":false},{"id":238,"special":true,"content":"🐶","single_word":false,"lstrip":false,"rstrip":false,"normalized":false},{"id":239,"special":true,"content":"😓","single_word":false,"lstrip":false,"rstrip":false,"normalized":false},{"id":240,"special":true,"content":"🐲","single_word":false,"lstrip":false,"rstrip":false,"normalized":false},{"id":241,"special":true,"content":"🤤","single_word":false,"lstrip":false,"rstrip":false,"normalized":false},{"id":242,"special":true,"content":"😑","single_word":false,"lstrip":false,"rstrip":false,"normalized":false},{"id":243,"special":true,"content":"😘","single_word":false,"lstrip":false,"rstrip":false,"normalized":false},{"id":244,"special":true,"content":"😋","single_word":false,"lstrip":false,"rstrip":false,"normalized":false},{"id":245,"special":true,"content":"😱","single_word":false,"lstrip":false,"rstrip":false,"normalized":false},{"id":246,"special":true,"content":"🤮","single_word":false,"lstrip":false,"rstrip":false,"normalized":false},{"id":247,"special":true,"content":"🤭","single_word":false,"lstrip":false,"rstrip":false,"normalized":false},{"id":248,"special":true,"content":"🤕","single_word":false,"lstrip":false,"rstrip":false,"normalized":false},{"id":249,"special":true,"content":"😷","single_word":false,"lstrip":false,"rstrip":false,"normalized":false},{"id":250,"special":true,"content":"🧐","single_word":false,"lstrip":false,"rstrip":false,"normalized":false},{"id":251,"special":true,"content":"😮","single_word":false,"lstrip":false,"rstrip":false,"normalized":false},{"id":252,"special":true,"content":"🤨","single_word":false,"lstrip":false,"rstrip":false,"normalized":false},{"id":253,"special":true,"content":"🙄","single_word":false,"lstrip":false,"rstrip":false,"normalized":false},{"id":254,"special":true,"content":"😤","single_word":false,"lstrip":false,"rstrip":false,"normalized":false},{"id":255,"special":true,"content":"🤬","single_word":false,"lstrip":false,"rstrip":false,"normalized":false},{"id":256,"special":true,"content":"😂","single_word":false,"lstrip":false,"rstrip":false,"normalized":false},{"id":257,"special":true,"content":"🤒","single_word":false,"lstrip":false,"rstrip":false,"normalized":false},{"id":258,"special":true,"content":"😛","single_word":false,"lstrip":false,"rstrip":false,"normalized":false},{"id":259,"special":true,"content":"😶","single_word":false,"lstrip":false,"rstrip":false,"normalized":false},{"id":260,"special":true,"content":"😨","single_word":false,"lstrip":false,"rstrip":false,"normalized":false},{"id":261,"special":true,"content":"🌛","single_word":false,"lstrip":false,"rstrip":false,"normalized":false},{"id":262,"special":true,"content":"😳","single_word":false,"lstrip":false,"rstrip":false,"normalized":false},{"id":263,"special":true,"content":"🦊","single_word":false,"lstrip":false,"rstrip":false,"normalized":false},{"id":264,"special":true,"content":"🐸","single_word":false,"lstrip":false,"rstrip":false,"normalized":false},{"id":265,"special":true,"content":"☹","single_word":false,"lstrip":false,"rstrip":false,"normalized":false},{"id":266,"special":true,"content":"☹️","single_word":false,"lstrip":false,"rstrip":false,"normalized":false},{"id":267,"special":true,"content":"😦","single_word":false,"lstrip":false,"rstrip":false,"normalized":false},{"id":268,"special":true,"content":"🌝","single_word":false,"lstrip":false,"rstrip":false,"normalized":false},{"id":269,"special":true,"content":"😬","single_word":false,"lstrip":false,"rstrip":false,"normalized":false},{"id":270,"special":true,"content":"😺","single_word":false,"lstrip":false,"rstrip":false,"normalized":false},{"id":271,"special":true,"content":"😸","single_word":false,"lstrip":false,"rstrip":false,"normalized":false},{"id":272,"special":true,"content":"😀","single_word":false,"lstrip":false,"rstrip":false,"normalized":false},{"id":273,"special":true,"content":"😃","single_word":false,"lstrip":false,"rstrip":false,"normalized":false},{"id":274,"special":true,"content":"😄","single_word":false,"lstrip":false,"rstrip":false,"normalized":false},{"id":275,"special":true,"content":"😅","single_word":false,"lstrip":false,"rstrip":false,"normalized":false},{"id":276,"special":true,"content":"😆","single_word":false,"lstrip":false,"rstrip":false,"normalized":false},{"id":277,"special":true,"content":"🐹","single_word":false,"lstrip":false,"rstrip":false,"normalized":false},{"id":278,"special":true,"content":"🐴","single_word":false,"lstrip":false,"rstrip":false,"normalized":false},{"id":279,"special":true,"content":"🥵","single_word":false,"lstrip":false,"rstrip":false,"normalized":false},{"id":280,"special":true,"content":"🤗","single_word":false,"lstrip":false,"rstrip":false,"normalized":false},{"id":281,"special":true,"content":"😯","single_word":false,"lstrip":false,"rstrip":false,"normalized":false},{"id":282,"special":true,"content":"😽","single_word":false,"lstrip":false,"rstrip":false,"normalized":false},{"id":283,"special":true,"content":"😗","single_word":false,"lstrip":false,"rstrip":false,"normalized":false},{"id":284,"special":true,"content":"😚","single_word":false,"lstrip":false,"rstrip":false,"normalized":false},{"id":285,"special":true,"content":"😙","single_word":false,"lstrip":false,"rstrip":false,"normalized":false},{"id":286,"special":true,"content":"🌜","single_word":false,"lstrip":false,"rstrip":false,"normalized":false},{"id":287,"special":true,"content":"🦁","single_word":false,"lstrip":false,"rstrip":false,"normalized":false},{"id":288,"special":true,"content":"😭","single_word":false,"lstrip":false,"rstrip":false,"normalized":false},{"id":289,"special":true,"content":"🤥","single_word":false,"lstrip":false,"rstrip":false,"normalized":false},{"id":290,"special":true,"content":"🤦🏿‍♂","single_word":false,"lstrip":false,"rstrip":false,"normalized":false},{"id":291,"special":true,"content":"🤦🏻‍♂","single_word":false,"lstrip":false,"rstrip":false,"normalized":false},{"id":292,"special":true,"content":"🤦🏾‍♂","single_word":false,"lstrip":false,"rstrip":false,"normalized":false},{"id":293,"special":true,"content":"🤦🏼‍♂","single_word":false,"lstrip":false,"rstrip":false,"normalized":false},{"id":294,"special":true,"content":"🤦🏽‍♂","single_word":false,"lstrip":false,"rstrip":false,"normalized":false},{"id":295,"special":true,"content":"🤦‍♂","single_word":false,"lstrip":false,"rstrip":false,"normalized":false},{"id":296,"special":true,"content":"🤦🏿‍♂️","single_word":false,"lstrip":false,"rstrip":false,"normalized":false},{"id":297,"special":true,"content":"🤦🏻‍♂️","single_word":false,"lstrip":false,"rstrip":false,"normalized":false},{"id":298,"special":true,"content":"🤦🏾‍♂️","single_word":false,"lstrip":false,"rstrip":false,"normalized":false},{"id":299,"special":true,"content":"🤦🏼‍♂️","single_word":false,"lstrip":false,"rstrip":false,"normalized":false},{"id":300,"special":true,"content":"🤦🏽‍♂️","single_word":false,"lstrip":false,"rstrip":false,"normalized":false},{"id":301,"special":true,"content":"🤦‍♂️","single_word":false,"lstrip":false,"rstrip":false,"normalized":false},{"id":302,"special":true,"content":"🤑","single_word":false,"lstrip":false,"rstrip":false,"normalized":false},{"id":303,"special":true,"content":"🐵","single_word":false,"lstrip":false,"rstrip":false,"normalized":false},{"id":304,"special":true,"content":"🐭","single_word":false,"lstrip":false,"rstrip":false,"normalized":false},{"id":305,"special":true,"content":"🤢","single_word":false,"lstrip":false,"rstrip":false,"normalized":false},{"id":306,"special":true,"content":"🤓","single_word":false,"lstrip":false,"rstrip":false,"normalized":false},{"id":307,"special":true,"content":"😐","single_word":false,"lstrip":false,"rstrip":false,"normalized":false},{"id":308,"special":true,"content":"🌚","single_word":false,"lstrip":false,"rstrip":false,"normalized":false},{"id":309,"special":true,"content":"🐼","single_word":false,"lstrip":false,"rstrip":false,"normalized":false},{"id":310,"special":true,"content":"🥳","single_word":false,"lstrip":false,"rstrip":false,"normalized":false},{"id":311,"special":true,"content":"😔","single_word":false,"lstrip":false,"rstrip":false,"normalized":false},{"id":312,"special":true,"content":"😣","single_word":false,"lstrip":false,"rstrip":false,"normalized":false},{"id":313,"special":true,"content":"🤦","single_word":false,"lstrip":false,"rstrip":false,"normalized":false},{"id":314,"special":true,"content":"🤦🏿","single_word":false,"lstrip":false,"rstrip":false,"normalized":false},{"id":315,"special":true,"content":"🤦🏻","single_word":false,"lstrip":false,"rstrip":false,"normalized":false},{"id":316,"special":true,"content":"🤦🏾","single_word":false,"lstrip":false,"rstrip":false,"normalized":false},{"id":317,"special":true,"content":"🤦🏼","single_word":false,"lstrip":false,"rstrip":false,"normalized":false},{"id":318,"special":true,"content":"🤦🏽","single_word":false,"lstrip":false,"rstrip":false,"normalized":false},{"id":319,"special":true,"content":"🐷","single_word":false,"lstrip":false,"rstrip":false,"normalized":false},{"id":320,"special":true,"content":"🥺","single_word":false,"lstrip":false,"rstrip":false,"normalized":false},{"id":321,"special":true,"content":"😾","single_word":false,"lstrip":false,"rstrip":false,"normalized":false},{"id":322,"special":true,"content":"😡","single_word":false,"lstrip":false,"rstrip":false,"normalized":false},{"id":323,"special":true,"content":"🐰","single_word":false,"lstrip":false,"rstrip":false,"normalized":false},{"id":324,"special":true,"content":"😌","single_word":false,"lstrip":false,"rstrip":false,"normalized":false},{"id":325,"special":true,"content":"🤖","single_word":false,"lstrip":false,"rstrip":false,"normalized":false},{"id":326,"special":true,"content":"😥","single_word":false,"lstrip":false,"rstrip":false,"normalized":false},{"id":327,"special":true,"content":"🤫","single_word":false,"lstrip":false,"rstrip":false,"normalized":false},{"id":328,"special":true,"content":"😴","single_word":false,"lstrip":false,"rstrip":false,"normalized":false},{"id":329,"special":true,"content":"😪","single_word":false,"lstrip":false,"rstrip":false,"normalized":false},{"id":330,"special":true,"content":"🙁","single_word":false,"lstrip":false,"rstrip":false,"normalized":false},{"id":331,"special":true,"content":"🙂","single_word":false,"lstrip":false,"rstrip":false,"normalized":false},{"id":332,"special":true,"content":"😻","single_word":false,"lstrip":false,"rstrip":false,"normalized":false},{"id":333,"special":true,"content":"☺","single_word":false,"lstrip":false,"rstrip":false,"normalized":false},{"id":334,"special":true,"content":"☺️","single_word":false,"lstrip":false,"rstrip":false,"normalized":false},{"id":335,"special":true,"content":"🥰","single_word":false,"lstrip":false,"rstrip":false,"normalized":false},{"id":336,"special":true,"content":"😇","single_word":false,"lstrip":false,"rstrip":false,"normalized":false},{"id":337,"special":true,"content":"😍","single_word":false,"lstrip":false,"rstrip":false,"normalized":false},{"id":338,"special":true,"content":"😈","single_word":false,"lstrip":false,"rstrip":false,"normalized":false},{"id":339,"special":true,"content":"😊","single_word":false,"lstrip":false,"rstrip":false,"normalized":false},{"id":340,"special":true,"content":"😎","single_word":false,"lstrip":false,"rstrip":false,"normalized":false},{"id":341,"special":true,"content":"😏","single_word":false,"lstrip":false,"rstrip":false,"normalized":false},{"id":342,"special":true,"content":"🤧","single_word":false,"lstrip":false,"rstrip":false,"normalized":false},{"id":343,"special":true,"content":"😝","single_word":false,"lstrip":false,"rstrip":false,"normalized":false},{"id":344,"special":true,"content":"🌞","single_word":false,"lstrip":false,"rstrip":false,"normalized":false},{"id":345,"special":true,"content":"🤔","single_word":false,"lstrip":false,"rstrip":false,"normalized":false},{"id":346,"special":true,"content":"🐯","single_word":false,"lstrip":false,"rstrip":false,"normalized":false},{"id":347,"special":true,"content":"😫","single_word":false,"lstrip":false,"rstrip":false,"normalized":false},{"id":348,"special":true,"content":"😒","single_word":false,"lstrip":false,"rstrip":false,"normalized":false},{"id":349,"special":true,"content":"🦄","single_word":false,"lstrip":false,"rstrip":false,"normalized":false},{"id":350,"special":true,"content":"🙃","single_word":false,"lstrip":false,"rstrip":false,"normalized":false},{"id":351,"special":true,"content":"🙀","single_word":false,"lstrip":false,"rstrip":false,"normalized":false},{"id":352,"special":true,"content":"😩","single_word":false,"lstrip":false,"rstrip":false,"normalized":false},{"id":353,"special":true,"content":"🌬","single_word":false,"lstrip":false,"rstrip":false,"normalized":false},{"id":354,"special":true,"content":"🌬️","single_word":false,"lstrip":false,"rstrip":false,"normalized":false},{"id":355,"special":true,"content":"😉","single_word":false,"lstrip":false,"rstrip":false,"normalized":false},{"id":356,"special":true,"content":"😜","single_word":false,"lstrip":false,"rstrip":false,"normalized":false},{"id":357,"special":true,"content":"🐺","single_word":false,"lstrip":false,"rstrip":false,"normalized":false},{"id":358,"special":true,"content":"🤦🏿‍♀","single_word":false,"lstrip":false,"rstrip":false,"normalized":false},{"id":359,"special":true,"content":"🤦🏻‍♀","single_word":false,"lstrip":false,"rstrip":false,"normalized":false},{"id":360,"special":true,"content":"🤦🏾‍♀","single_word":false,"lstrip":false,"rstrip":false,"normalized":false},{"id":361,"special":true,"content":"🤦🏼‍♀","single_word":false,"lstrip":false,"rstrip":false,"normalized":false},{"id":362,"special":true,"content":"🤦🏽‍♀","single_word":false,"lstrip":false,"rstrip":false,"normalized":false},{"id":363,"special":true,"content":"🤦‍♀","single_word":false,"lstrip":false,"rstrip":false,"normalized":false},{"id":364,"special":true,"content":"🤦🏿‍♀️","single_word":false,"lstrip":false,"rstrip":false,"normalized":false},{"id":365,"special":true,"content":"🤦🏻‍♀️","single_word":false,"lstrip":false,"rstrip":false,"normalized":false},{"id":366,"special":true,"content":"🤦🏾‍♀️","single_word":false,"lstrip":false,"rstrip":false,"normalized":false},{"id":367,"special":true,"content":"🤦🏼‍♀️","single_word":false,"lstrip":false,"rstrip":false,"normalized":false},{"id":368,"special":true,"content":"🤦🏽‍♀️","single_word":false,"lstrip":false,"rstrip":false,"normalized":false},{"id":369,"special":true,"content":"🤦‍♀️","single_word":false,"lstrip":false,"rstrip":false,"normalized":false},{"id":370,"special":true,"content":"🥴","single_word":false,"lstrip":false,"rstrip":false,"normalized":false},{"id":371,"special":true,"content":"😟","single_word":false,"lstrip":false,"rstrip":false,"normalized":false},{"id":372,"special":true,"content":"🥱","single_word":false,"lstrip":false,"rstrip":false,"normalized":false},{"id":373,"special":true,"content":"🤪","single_word":false,"lstrip":false,"rstrip":false,"normalized":false},{"id":374,"special":true,"content":"🤐","single_word":false,"lstrip":false,"rstrip":false,"normalized":false}],"normalizer":{"type":"Sequence","normalizers":[{"type":"NFKC"},{"type":"BertNormalizer","clean_text":false,"handle_chinese_chars":false,"strip_accents":false,"lowercase":false}]},"pre_tokenizer":{"type":"Sequence","pretokenizers":[{"type":"Metaspace","replacement":"▁","add_prefix_space":true}]},"post_processor":null,"decoder":{"type":"Metaspace","replacement":"▁","add_prefix_space":true},"model":{"type":"BPE","dropout":null,"unk_token":"<unk>","continuing_subword_prefix":null,"end_of_word_suffix":null,"fuse_unk":false,"vocab":{"<s>":0,"</s>":1,"<usr>":2,"<pad>":3,"<sys>":4,"<unk>":5,"<mask>":6,"<d>":7,"</d>":8,"<unused0>":9,"<unused1>":10,"<unused2>":11,"<unused3>":12,"<unused4>":13,"<unused5>":14,"<unused6>":15,"<unused7>":16,"<unused8>":17,"<unused9>":18,"<unused10>":19,"<unused11>":20,"<unused12>":21,"<unused13>":22,"<unused14>":23,"<unused15>":24,"<unused16>":25,"<unused17>":26,"<unused18>":27,"<unused19>":28,"<unused20>":29,"<unused21>":30,"<unused22>":31,"<unused23>":32,"<unused24>":33,"<unused25>":34,"<unused26>":35,"<unused27>":36,"<unused28>":37,"<unused29>":38,"<unused30>":39,"<unused31>":40,"<unused32>":41,"<unused33>":42,"<unused34>":43,"<unused35>":44,"<unused36>":45,"<unused37>":46,"<unused38>":47,"<unused39>":48,"<unused40>":49,"<unused41>":50,"<unused42>":51,"<unused43>":52,"<unused44>":53,"<unused45>":54,"<unused46>":55,"<unused47>":56,"<unused48>":57,"<unused49>":58,"<unused50>":59,"<unused51>":60,"<unused52>":61,"<unused53>":62,"<unused54>":63,"<unused55>":64,"<unused56>":65,"<unused57>":66,"<unused58>":67,"<unused59>":68,"<unused60>":69,"<unused61>":70,"<unused62>":71,"<unused63>":72,"<unused64>":73,"<unused65>":74,"<unused66>":75,"<unused67>":76,"<unused68>":77,"<unused69>":78,"<unused70>":79,"<unused71>":80,"<unused72>":81,"<unused73>":82,"<unused74>":83,"<unused75>":84,"<unused76>":85,"<unused77>":86,"<unused78>":87,"<unused79>":88,"<unused80>":89,"<unused81>":90,"<unused82>":91,"<unused83>":92,"<unused84>":93,"<unused85>":94,"<unused86>":95,"<unused87>":96,"<unused88>":97,"<unused89>":98,"<unused90>":99,"<unused91>":100,"<unused92>":101,"<unused93>":102,"<unused94>":103,"<unused95>":104,"<unused96>":105,"<unused97>":106,"<unused98>":107,"<unused99>":108,":-)":109,":)":110,"-)":111,"(-:":112,"(:-)":113,"(:-(":114,"-}":115,"8-O":116,"'-)":117,":-#":118,":-*":119,":-/":120,":->":121,":-@":122,":-d":123,":-V":124,":-X":125,":-\\":126,":-]":127,";-(":128,">;->":129,";^)":130,"%-)":131,"):-(":132,"3:]":133,":-&":134,"8:-)":135,":-)8<":136,":-O":137,":-6":138,"+:-)":139,"O:-)":140,":-<":141,":-?":142,":-E":143,":-Q":144,":-}X":145,":-[":146,":-a":147,":-{":148,":-{}":149,":^)":150,"<:-l":151,":=)":152,">:->":153,">:-l":154,"@:-)":155,"@:-}":156,"C=:-)":157,"X:-)":158,"[:-)":159,"[:]":160,"{:-)":161,"l^o":162,"}:^#)":163,":-(=)":164,"O-)":165,":-3":166,":=":167,":-\"":168,"P-(":169,"?-(":170,"d:-)":171,":8)":172,":-7":173,"):-)":174,":/\\)":175,"8(:-)":176,"([(":177,":-(*)":178,"&-l":179,":-e":180,":(":181,":,(":182,":-(":183,":-P":184,":-S":185,":-C":186,":-r":187,":-t":188,":-W":189,"X-(":190,"l-O":191,"l:-O":192,"$-)":193,":-!":194,":----}":195,"=:-)":196,"=:-(":197,"3:[":198,"8<:-)":199,":#)":200,"8-#":201,"B-)":202,"8-)":203,"|-(":204,"H-)":205,"]-I":206,"V^J":207,"+-(":208,"~:-P":209,"`'":210,"L-P":211,"BI":212,"O|":213,"^^":214,"ㅜㅜ":215,"ㅠㅠ":216,"ㅡㅡ":217,"😠":218,"👿":219,"😧":220,"😰":221,"😲":222,"😁":223,"🐻":224,"🐱":225,"😹":226,"😼":227,"🤡":228,"🥶":229,"😖":230,"😕":231,"🐮":232,"🤠":233,"😿":234,"😢":235,"😞":236,"😵":237,"🐶":238,"😓":239,"🐲":240,"🤤":241,"😑":242,"😘":243,"😋":244,"😱":245,"🤮":246,"🤭":247,"🤕":248,"😷":249,"🧐":250,"😮":251,"🤨":252,"🙄":253,"😤":254,"🤬":255,"😂":256,"🤒":257,"😛":258,"😶":259,"😨":260,"🌛":261,"😳":262,"🦊":263,"🐸":264,"☹":265,"☹️":266,"😦":267,"🌝":268,"😬":269,"😺":270,"😸":271,"😀":272,"😃":273,"😄":274,"😅":275,"😆":276,"🐹":277,"🐴":278,"🥵":279,"🤗":280,"😯":281,"😽":282,"😗":283,"😚":284,"😙":285,"🌜":286,"🦁":287,"😭":288,"🤥":289,"🤦🏿‍♂":290,"🤦🏻‍♂":291,"🤦🏾‍♂":292,"🤦🏼‍♂":293,"🤦🏽‍♂":294,"🤦‍♂":295,"🤦🏿‍♂️":296,"🤦🏻‍♂️":297,"🤦🏾‍♂️":298,"🤦🏼‍♂️":299,"🤦🏽‍♂️":300,"🤦‍♂️":301,"🤑":302,"🐵":303,"🐭":304,"🤢":305,"🤓":306,"😐":307,"🌚":308,"🐼":309,"🥳":310,"😔":311,"😣":312,"🤦":313,"🤦🏿":314,"🤦🏻":315,"🤦🏾":316,"🤦🏼":317,"🤦🏽":318,"🐷":319,"🥺":320,"😾":321,"😡":322,"🐰":323,"😌":324,"🤖":325,"😥":326,"🤫":327,"😴":328,"😪":329,"🙁":330,"🙂":331,"😻":332,"☺":333,"☺️":334,"🥰":335,"😇":336,"😍":337,"😈":338,"😊":339,"😎":340,"😏":341,"🤧":342,"😝":343,"🌞":344,"🤔":345,"🐯":346,"😫":347,"😒":348,"🦄":349,"🙃":350,"🙀":351,"😩":352,"🌬":353,"🌬️":354,"😉":355,"😜":356,"🐺":357,"🤦🏿‍♀":358,"🤦🏻‍♀":359,"🤦🏾‍♀":360,"🤦🏼‍♀":361,"🤦🏽‍♀":362,"🤦‍♀":363,"🤦🏿‍♀️":364,"🤦🏻‍♀️":365,"🤦🏾‍♀️":366,"🤦🏼‍♀️":367,"🤦🏽‍♀️":368,"🤦‍♀️":369,"🥴":370,"😟":371,"🥱":372,"🤪":373,"🤐":374,"\n":375,"!":376,"\"":377,"#":378,"$":379,"%":380,"&":381,"'":382,"(":383,")":384,"*":385,"+":386,",":387,"-":388,".":389,"/":390,"0":391,"1":392,"2":393,"3":394,"4":395,"5":396,"6":397,"7":398,"8":399,"9":400,":":401,";":402,"<":403,"=":404,">":405,"?":406,"A":407,"B":408,"C":409,"D":410,"E":411,"F":412,"G":413,"H":414,"I":415,"J":416,"K":417,"L":418,"M":419,"N":420,"O":421,"P":422,"Q":423,"R":424,"S":425,"T":426,"U":427,"V":428,"W":429,"X":430,"Y":431,"Z":432,"[":433,"\\":434,"]":435,"^":436,"_":437,"`":438,"a":439,"b":440,"c":441,"d":442,"e":443,"f":444,"g":445,"h":446,"i":447,"j":448,"k":449,"l":450,"m":451,"n":452,"o":453,"p":454,"q":455,"r":456,"s":457,"t":458,"u":459,"v":460,"w":461,"x":462,"y":463,"z":464,"{":465,"|":466,"}":467,"~":468,"­":469,"°":470,"±":471,"¶":472,"·":473,"À":474,"Á":475,"Â":476,"Ä":477,"Å":478,"É":479,"Í":480,"Î":481,"Ó":482,"Ö":483,"×":484,"Ø":485,"Ú":486,"Ü":487,"ß":488,"à":489,"á":490,"â":491,"ã":492,"ä":493,"å":494,"æ":495,"ç":496,"è":497,"é":498,"ê":499,"ë":500,"ì":501,"í":502,"î":503,"ï":504,"ñ":505,"ò":506,"ó":507,"ô":508,"õ":509,"ö":510,"÷":511,"ø":512,"ù":513,"ú":514,"û":515,"ü":516,"Ā":517,"ā":518,"ą":519,"ć":520,"č":521,"ē":522,"ĕ":523,"ę":524,"ě":525,"ħ":526,"ī":527,"İ":528,"ł":529,"ń":530,"ŋ":531,"ō":532,"œ":533,"Ś":534,"ś":535,"ş":536,"š":537,"ū":538,"ů":539,"ų":540,"ź":541,"ż":542,"ž":543,"ǎ":544,"ǐ":545,"ǒ":546,"ǔ":547,"ș":548,"ȩ":549,"ɔ":550,"ə":551,"ɛ":552,"ɨ":553,"ɯ":554,"ɲ":555,"ʃ":556,"ʻ":557,"ʼ":558,"ː":559,"́":560,"̆":561,"̊":562,"̋":563,"Δ":564,"Φ":565,"Ψ":566,"Ω":567,"α":568,"β":569,"γ":570,"δ":571,"ε":572,"ζ":573,"θ":574,"ι":575,"λ":576,"μ":577,"ν":578,"ξ":579,"π":580,"ρ":581,"σ":582,"τ":583,"υ":584,"φ":585,"χ":586,"ψ":587,"ω":588,"ч":589,"ᄀ":590,"ᄁ":591,"ᄂ":592,"ᄃ":593,"ᄄ":594,"ᄅ":595,"ᄆ":596,"ᄇ":597,"ᄈ":598,"ᄉ":599,"ᄊ":600,"ᄋ":601,"ᄌ":602,"ᄍ":603,"ᄎ":604,"ᄏ":605,"ᄐ":606,"ᄑ":607,"ᄒ":608,"ᄚ":609,"ᄝ":610,"ᄞ":611,"ᄠ":612,"ᄡ":613,"ᄢ":614,"ᄣ":615,"ᄧ":616,"ᄫ":617,"ᄬ":618,"ᄭ":619,"ᄯ":620,"ᄲ":621,"ᅀ":622,"ᅌ":623,"ᅗ":624,"ᅙ":625,"ᅠ":626,"ᅡ":627,"ᅢ":628,"ᅣ":629,"ᅤ":630,"ᅥ":631,"ᅦ":632,"ᅧ":633,"ᅨ":634,"ᅩ":635,"ᅪ":636,"ᅫ":637,"ᅬ":638,"ᅭ":639,"ᅮ":640,"ᅯ":641,"ᅰ":642,"ᅱ":643,"ᅲ":644,"ᅳ":645,"ᅴ":646,"ᅵ":647,"ᆞ":648,"ᆡ":649,"ᆪ":650,"ᆬ":651,"ᆭ":652,"ᆰ":653,"ᆱ":654,"ᆲ":655,"ᆳ":656,"ᆴ":657,"ᆵ":658,"ᆹ":659,"ᇙ":660,"ᇦ":661,"ḍ":662,"Ḥ":663,"ḥ":664,"ṃ":665,"ṅ":666,"ṇ":667,"Ṛ":668,"ṛ":669,"Ṣ":670,"ṣ":671,"Ṭ":672,"ṭ":673,"ạ":674,"ῑ":675,"​":676,"–":677,"—":678,"―":679,"‘":680,"’":681,"‚":682,"“":683,"”":684,"•":685,"‧":686,"‰":687,"′":688,"※":689,"⁄":690,"₩":691,"⃞":692,"←":693,"→":694,"↓":695,"↔":696,"↕":697,"↗":698,"↘":699,"↙":700,"⇀":701,"⇄":702,"⇒":703,"⇨":704,"∇":705,"∈":706,"∏":707,"∑":708,"∕":709,"∙":710,"√":711,"∞":712,"∠":713,"∥":714,"∧":715,"∨":716,"∩":717,"∫":718,"∴":719,"∶":720,"∼":721,"∽":722,"≒":723,"≠":724,"≡":725,"≤":726,"≥":727,"≪":728,"≫":729,"⊃":730,"⊙":731,"⊥":732,"⋅":733,"⌒":734,"─":735,"│":736,"├":737,"┤":738,"▁":739,"■":740,"□":741,"▲":742,"△":743,"▶":744,"▷":745,"▼":746,"▽":747,"◆":748,"◇":749,"○":750,"●":751,"★":752,"☆":753,"☞":754,"♀":755,"♂":756,"♡":757,"♥":758,"♩":759,"♪":760,"♭":761,"✕":762,"➀":763,"➁":764,"➂":765,"➃":766,"➞":767,"、":768,"。":769,"〃":770,"〈":771,"〉":772,"《":773,"》":774,"「":775,"」":776,"『":777,"』":778,"【":779,"】":780,"〓":781,"〔":782,"〕":783,"〖":784,"〗":785,"〜":786,"あ":787,"い":788,"う":789,"お":790,"か":791,"き":792,"ぎ":793,"く":794,"け":795,"げ":796,"こ":797,"ご":798,"さ":799,"ざ":800,"し":801,"ず":802,"た":803,"ち":804,"っ":805,"つ":806,"て":807,"で":808,"と":809,"ど":810,"な":811,"に":812,"の":813,"は":814,"ふ":815,"ぼ":816,"ま":817,"ゃ":818,"ゅ":819,"よ":820,"ら":821,"り":822,"る":823,"れ":824,"を":825,"ん":826,"ア":827,"イ":828,"オ":829,"カ":830,"ガ":831,"キ":832,"ク":833,"ケ":834,"コ":835,"サ":836,"シ":837,"ジ":838,"ス":839,"ズ":840,"セ":841,"ソ":842,"タ":843,"ダ":844,"ッ":845,"ツ":846,"デ":847,"ト":848,"ナ":849,"ヌ":850,"ネ":851,"ノ":852,"ハ":853,"ヒ":854,"ピ":855,"フ":856,"マ":857,"ミ":858,"ム":859,"メ":860,"ヨ":861,"ラ":862,"リ":863,"ワ":864,"ン":865,"ヶ":866,"・":867,"ー":868,"㑊":869,"㑖":870,"㑣":871,"㖨":872,"㙆":873,"㙉":874,"㙿":875,"㝡":876,"㠅":877,"㠱":878,"㤼":879,"㥠":880,"㦀":881,"㫝":882,"㫥":883,"㬅":884,"㮨":885,"㯳":886,"㰔":887,"㳞":888,"㳣":889,"㴤":890,"㵙":891,"㵾":892,"㶅":893,"㶨":894,"㷁":895,"㺚":896,"㺬":897,"㻍":898,"㻐":899,"㻶":900,"㼁":901,"㿻":902,"䂓":903,"䄵":904,"䆃":905,"䍦":906,"䎖":907,"䎘":908,"䙆":909,"䞭":910,"䥐":911,"䥴":912,"一":913,"丁":914,"七":915,"万":916,"丈":917,"三":918,"上":919,"下":920,"不":921,"与":922,"丏":923,"丐":924,"丑":925,"且":926,"丕":927,"世":928,"丘":929,"丙":930,"东":931,"丞":932,"两":933,"並":934,"丧":935,"个":936,"丫":937,"中":938,"丰":939,"串":940,"临":941,"丸":942,"丹":943,"为":944,"主":945,"丽":946,"举":947,"乂":948,"乃":949,"久":950,"义":951,"之":952,"乌":953,"乍":954,"乎":955,"乏":956,"乐":957,"乖":958,"乘":959,"乙":960,"九":961,"乞":962,"也":963,"乡":964,"书":965,"乫":966,"乭":967,"乱":968,"乳":969,"乾":970,"亂":971,"了":972,"亇":973,"予":974,"事":975,"二":976,"于":977,"亏":978,"亐":979,"云":980,"互":981,"五":982,"井":983,"亘":984,"亚":985,"些":986,"亞":987,"亟":988,"亡":989,"亢":990,"交":991,"亥":992,"亦":993,"亨":994,"亩":995,"享":996,"京":997,"亭":998,"亮":999,"亲":1000,"亳":1001,"亶":1002,"人":1003,"什":1004,"仁":1005,"仄":1006,"仆":1007,"仇":1008,"仉":1009,"今":1010,"介":1011,"仍":1012,"从":1013,"仑":1014,"仔":1015,"仕":1016,"他":1017,"仗":1018,"付":1019,"仙":1020,"仝":1021,"仞":1022,"仡":1023,"代":1024,"令":1025,"以":1026,"仰":1027,"仲":1028,"仵":1029,"件":1030,"价":1031,"任":1032,"企":1033,"伊":1034,"伋":1035,"伍":1036,"伎":1037,"伏":1038,"伐":1039,"休":1040,"伕":1041,"会":1042,"传":1043,"伦":1044,"伯":1045,"伴":1046,"伶":1047,"伷":1048,"伸":1049,"伺":1050,"似":1051,"伽":1052,"佃":1053,"但":1054,"佇":1055,"佈":1056,"位":1057,"低":1058,"住":1059,"佐":1060,"佑":1061,"体":1062,"佔":1063,"何":1064,"佖":1065,"余":1066,"佚":1067,"佛":1068,"作":1069,"佟":1070,"你":1071,"佩":1072,"佰":1073,"佳":1074,"佶":1075,"佺":1076,"佾":1077,"使":1078,"侁":1079,"侂":1080,"侃":1081,"侄":1082,"侅":1083,"來":1084,"侇":1085,"侈":1086,"例":1087,"侍":1088,"侏":1089,"侑":1090,"侔":1091,"侖":1092,"侗":1093,"供":1094,"依":1095,"価":1096,"侤":1097,"侮":1098,"侯":1099,"侲":1100,"侵":1101,"侶":1102,"侾":1103,"便":1104,"俁":1105,"係":1106,"促":1107,"俄":1108,"俊":1109,"俌":1110,"俎":1111,"俑":1112,"俔":1113,"俗":1114,"俘":1115,"俚":1116,"俛":1117,"保":1118,"俟":1119,"俠":1120,"信":1121,"俩":1122,"修":1123,"俯":1124,"俱":1125,"俳":1126,"俶":1127,"俸":1128,"俺":1129,"俾":1130,"倂":1131,"倅":1132,"倉":1133,"個":1134,"倍":1135,"倎":1136,"們":1137,"倒":1138,"倖":1139,"倘":1140,"候":1141,"倚":1142,"倜":1143,"借":1144,"倡":1145,"倣":1146,"値":1147,"倦":1148,"倧":1149,"倩":1150,"倪":1151,"倫":1152,"倬":1153,"倭":1154,"倻":1155,"偁":1156,"偃":1157,"偅":1158,"假":1159,"偈":1160,"偉":1161,"偏":1162,"偕":1163,"做":1164,"停":1165,"健":1166,"偰":1167,"側":1168,"偵":1169,"偶":1170,"偸":1171,"傀":1172,"傅":1173,"傍":1174,"傑":1175,"傖":1176,"傘":1177,"備":1178,"傣":1179,"催":1180,"傭":1181,"傲":1182,"傳":1183,"債":1184,"傷":1185,"傾":1186,"僅":1187,"僉":1188,"僊":1189,"像":1190,"僐":1191,"僑":1192,"僕":1193,"僖":1194,"僚":1195,"僞":1196,"僥":1197,"僧":1198,"僩":1199,"僭":1200,"僮":1201,"價":1202,"僻":1203,"僿":1204,"儀":1205,"儁":1206,"儂":1207,"億":1208,"儆":1209,"儉":1210,"儐":1211,"儒":1212,"儔":1213,"儕":1214,"償":1215,"儡":1216,"優":1217,"儲":1218,"儷":1219,"儺":1220,"儻":1221,"儼":1222,"儿":1223,"兀":1224,"允":1225,"元":1226,"兄":1227,"充":1228,"兆":1229,"兇":1230,"先":1231,"光":1232,"克":1233,"兌":1234,"免":1235,"兎":1236,"兒":1237,"兔":1238,"兕":1239,"兗":1240,"党":1241,"兜":1242,"兢":1243,"入":1244,"內":1245,"全":1246,"兩":1247,"兪":1248,"八":1249,"公":1250,"六":1251,"兮":1252,"兰":1253,"共":1254,"关":1255,"兴":1256,"兵":1257,"其":1258,"具":1259,"典":1260,"养":1261,"兼":1262,"兽":1263,"冀":1264,"内":1265,"円":1266,"冈":1267,"冉":1268,"冊":1269,"再":1270,"冏":1271,"冑":1272,"冒":1273,"冕":1274,"冗":1275,"农":1276,"冠":1277,"冢":1278,"冣":1279,"冤":1280,"冥":1281,"冪":1282,"冬":1283,"冯":1284,"冰":1285,"冲":1286,"冶":1287,"冷":1288,"冽":1289,"准":1290,"凉":1291,"凋":1292,"凌":1293,"凍":1294,"凝":1295,"几":1296,"凡":1297,"凭":1298,"凰":1299,"凱":1300,"凵":1301,"凶":1302,"凸":1303,"凹":1304,"出":1305,"函":1306,"刀":1307,"刁":1308,"刂":1309,"刃":1310,"分":1311,"切":1312,"刈":1313,"刊":1314,"刑":1315,"刓":1316,"刕":1317,"刖":1318,"列":1319,"创":1320,"初":1321,"判":1322,"別":1323,"利":1324,"刪":1325,"别":1326,"刮":1327,"到":1328,"刱":1329,"刳":1330,"制":1331,"刷":1332,"券":1333,"刹":1334,"刺":1335,"刻":1336,"剃":1337,"則":1338,"削":1339,"剋":1340,"剌":1341,"前":1342,"剖":1343,"剛":1344,"剝":1345,"剡":1346,"剧":1347,"剩":1348,"剪":1349,"副":1350,"割":1351,"創":1352,"剿":1353,"劃":1354,"劇":1355,"劉":1356,"劍":1357,"劑":1358,"劒":1359,"劓":1360,"力":1361,"功":1362,"加":1363,"劣":1364,"劤":1365,"动":1366,"助":1367,"努":1368,"劫":1369,"劬":1370,"劭":1371,"労":1372,"効":1373,"劾":1374,"勁":1375,"勃":1376,"勅":1377,"勇":1378,"勉":1379,"勐":1380,"勒":1381,"動":1382,"勖":1383,"勗":1384,"勘":1385,"務":1386,"勛":1387,"勝":1388,"勞":1389,"募":1390,"勢":1391,"勣":1392,"勤":1393,"勰":1394,"勳":1395,"勵":1396,"勸":1397,"勺":1398,"勻":1399,"勾":1400,"勿":1401,"包":1402,"匈":1403,"匍":1404,"匏":1405,"匐":1406,"匕":1407,"化":1408,"北":1409,"匙":1410,"匝":1411,"匠":1412,"匡":1413,"匣":1414,"匧":1415,"匪":1416,"匯":1417,"匱":1418,"匲":1419,"匵":1420,"匹":1421,"区":1422,"匿":1423,"區":1424,"十":1425,"千":1426,"卄":1427,"升":1428,"午":1429,"卉":1430,"半":1431,"卌":1432,"卍":1433,"华":1434,"卑":1435,"卒":1436,"卓":1437,"協":1438,"南":1439,"博":1440,"卜":1441,"卞":1442,"占":1443,"卡":1444,"卦":1445,"卨":1446,"卫":1447,"卯":1448,"印":1449,"危":1450,"却":1451,"卵":1452,"卷":1453,"卺":1454,"卻":1455,"卽":1456,"卿":1457,"厂":1458,"厄":1459,"压":1460,"厓":1461,"厖":1462,"厘":1463,"厚":1464,"厝":1465,"原":1466,"厥":1467,"厦":1468,"厨":1469,"厭":1470,"厲":1471,"去":1472,"县":1473,"叁":1474,"参":1475,"參":1476,"又":1477,"叉":1478,"及":1479,"友":1480,"双":1481,"反":1482,"叔":1483,"取":1484,"受":1485,"变":1486,"叙":1487,"叛":1488,"叟":1489,"叡":1490,"叢":1491,"口":1492,"古":1493,"句":1494,"叩":1495,"只":1496,"召":1497,"叭":1498,"可":1499,"台":1500,"叱":1501,"史":1502,"右":1503,"叶":1504,"号":1505,"司":1506,"吁":1507,"吃":1508,"各":1509,"吆":1510,"合":1511,"吉":1512,"吊":1513,"同":1514,"名":1515,"后":1516,"吏":1517,"吐":1518,"向":1519,"吓":1520,"君":1521,"吝":1522,"吟":1523,"吠":1524,"否":1525,"含":1526,"听":1527,"吮":1528,"吳":1529,"吴":1530,"吶":1531,"吸":1532,"吹":1533,"吻":1534,"吽":1535,"吾":1536,"呂":1537,"呆":1538,"呇":1539,"呈":1540,"告":1541,"呐":1542,"呑":1543,"呢":1544,"周":1545,"呪":1546,"呫":1547,"味":1548,"呼":1549,"命":1550,"咀":1551,"咄":1552,"咆":1553,"和":1554,"咎":1555,"咏":1556,"咢":1557,"咨":1558,"咬":1559,"咸":1560,"咽":1561,"哀":1562,"品":1563,"哆":1564,"哈":1565,"哉":1566,"响":1567,"員":1568,"哥":1569,"哦":1570,"哨":1571,"哪":1572,"哭":1573,"哮":1574,"哱":1575,"哲":1576,"哺":1577,"唁":1578,"唄":1579,"唇":1580,"唐":1581,"唢":1582,"唫":1583,"售":1584,"唯":1585,"唱":1586,"唵":1587,"唾":1588,"啄":1589,"商":1590,"問":1591,"啐":1592,"啓":1593,"啜":1594,"啞":1595,"啫":1596,"啰":1597,"啼":1598,"喀":1599,"喃":1600,"善":1601,"喆":1602,"喇":1603,"喈":1604,"喉":1605,"喊":1606,"喏":1607,"喘":1608,"喚":1609,"喜":1610,"喝":1611,"喟":1612,"喧":1613,"喩":1614,"喪":1615,"喫":1616,"喬":1617,"單":1618,"嗅":1619,"嗔":1620,"嗚":1621,"嗜":1622,"嗟":1623,"嗣":1624,"嗺":1625,"嘆":1626,"嘈":1627,"嘉":1628,"嘎":1629,"嘏":1630,"嘔":1631,"嘗":1632,"嘩":1633,"嘯":1634,"嘲":1635,"嘴":1636,"嘶":1637,"嘻":1638,"噎":1639,"噤":1640,"器":1641,"噫":1642,"噲":1643,"噴":1644,"噶":1645,"嚕":1646,"嚙":1647,"嚜":1648,"嚞":1649,"嚧":1650,"嚬":1651,"嚮":1652,"嚴":1653,"嚼":1654,"囁":1655,"囂":1656,"囉":1657,"囊":1658,"囍":1659,"囗":1660,"囚":1661,"四":1662,"回":1663,"因":1664,"団":1665,"囤":1666,"困":1667,"围":1668,"囷":1669,"囹":1670,"固":1671,"国":1672,"图":1673,"囿":1674,"圃":1675,"圄":1676,"圆":1677,"圈":1678,"圉":1679,"國":1680,"圍":1681,"園":1682,"圓":1683,"圖":1684,"團":1685,"圜":1686,"土":1687,"圣":1688,"在":1689,"圭":1690,"圯":1691,"地":1692,"圳":1693,"圻":1694,"址":1695,"坂":1696,"均":1697,"坊":1698,"坎":1699,"坏":1700,"坐":1701,"坑":1702,"块":1703,"坚":1704,"坡":1705,"坤":1706,"坦":1707,"坩":1708,"坪":1709,"坮":1710,"坰":1711,"坵":1712,"坽":1713,"垂":1714,"垅":1715,"垈":1716,"型":1717,"垍":1718,"垓":1719,"垕":1720,"垛":1721,"垜":1722,"垠":1723,"垢":1724,"垣":1725,"垸":1726,"垾":1727,"埃":1728,"埈":1729,"埋":1730,"城":1731,"埏":1732,"埔":1733,"埜":1734,"域":1735,"埡":1736,"埦":1737,"埰":1738,"埴":1739,"執":1740,"培":1741,"基":1742,"埼":1743,"堀":1744,"堂":1745,"堅":1746,"堆":1747,"堈":1748,"堉":1749,"堊":1750,"堗":1751,"堞":1752,"堡":1753,"堣":1754,"堤":1755,"堧":1756,"堪":1757,"堯":1758,"堰":1759,"報":1760,"場":1761,"堵":1762,"堺":1763,"塊":1764,"塋":1765,"塏":1766,"塑":1767,"塔":1768,"塗":1769,"塘":1770,"塚":1771,"塞":1772,"塡":1773,"塢":1774,"塤":1775,"塩":1776,"塬":1777,"塵":1778,"塹":1779,"塼":1780,"塾":1781,"墀":1782,"境":1783,"墅":1784,"墉":1785,"墓":1786,"墜":1787,"增":1788,"墟":1789,"墨":1790,"墩":1791,"墮":1792,"墰":1793,"墳":1794,"墺":1795,"墻":1796,"墾":1797,"壁":1798,"壅":1799,"壇":1800,"壋":1801,"壑":1802,"壓":1803,"壕":1804,"壘":1805,"壙":1806,"壝":1807,"壞":1808,"壟":1809,"壤":1810,"壩":1811,"士":1812,"壬":1813,"壯":1814,"壹":1815,"壺":1816,"壻":1817,"壼":1818,"壽":1819,"夏":1820,"夔":1821,"夕":1822,"外":1823,"夙":1824,"多":1825,"夜":1826,"夢":1827,"大":1828,"天":1829,"太":1830,"夫":1831,"夭":1832,"央":1833,"失":1834,"头":1835,"夷":1836,"夾":1837,"奄":1838,"奇":1839,"奈":1840,"奉":1841,"奎":1842,"奏":1843,"奐":1844,"契":1845,"奔":1846,"奕":1847,"套":1848,"奘":1849,"奚":1850,"奠":1851,"奢":1852,"奥":1853,"奧":1854,"奩":1855,"奪":1856,"奫":1857,"奬":1858,"奭":1859,"奮":1860,"女":1861,"奴":1862,"奶":1863,"奸":1864,"好":1865,"如":1866,"妃":1867,"妄":1868,"妊":1869,"妒":1870,"妓":1871,"妖":1872,"妙":1873,"妝":1874,"妞":1875,"妣":1876,"妤":1877,"妬":1878,"妮":1879,"妲":1880,"妹":1881,"妺":1882,"妻":1883,"妾":1884,"姆":1885,"姉":1886,"姊":1887,"始":1888,"姐":1889,"姑":1890,"姒":1891,"姓":1892,"委":1893,"姚":1894,"姜":1895,"姦":1896,"姨":1897,"姪":1898,"姬":1899,"姱":1900,"姸":1901,"姻":1902,"姿":1903,"威":1904,"娃":1905,"娑":1906,"娘":1907,"娛":1908,"娜":1909,"娟":1910,"娣":1911,"娥":1912,"娶":1913,"娼":1914,"婁":1915,"婆":1916,"婉":1917,"婕":1918,"婚":1919,"婢":1920,"婦":1921,"婬":1922,"婷":1923,"婺":1924,"婿":1925,"媒":1926,"媚":1927,"媛":1928,"媤":1929,"媳":1930,"媵":1931,"媼":1932,"媾":1933,"嫁":1934,"嫂":1935,"嫌":1936,"嫗":1937,"嫡":1938,"嫩":1939,"嬀":1940,"嬉":1941,"嬋":1942,"嬌":1943,"嬖":1944,"嬪":1945,"嬰":1946,"孀":1947,"子":1948,"孔":1949,"孕":1950,"字":1951,"存":1952,"孙":1953,"孚":1954,"孜":1955,"孝":1956,"孟":1957,"季":1958,"孤":1959,"学":1960,"孩":1961,"孫":1962,"孰":1963,"孱":1964,"孵":1965,"學":1966,"孺":1967,"孼":1968,"孽":1969,"宀":1970,"宁":1971,"它":1972,"宅":1973,"宇":1974,"守":1975,"安":1976,"宋":1977,"完":1978,"宍":1979,"宏":1980,"宕":1981,"宖":1982,"宗":1983,"官":1984,"宙":1985,"定":1986,"宛":1987,"宜":1988,"宝":1989,"实":1990,"実":1991,"客":1992,"宣":1993,"室":1994,"宥":1995,"宦":1996,"宪":1997,"宬":1998,"宮":1999,"宰":2000,"害":2001,"宴":2002,"宵":2003,"家":2004,"宸":2005,"容":2006,"宽":2007,"宿":2008,"寀":2009,"寂":2010,"寃":2011,"寄":2012,"寅":2013,"密":2014,"寇":2015,"富":2016,"寐":2017,"寒":2018,"寓":2019,"寔":2020,"寗":2021,"寘":2022,"寞":2023,"察":2024,"寡":2025,"寢":2026,"寤":2027,"寥":2028,"實":2029,"寧":2030,"寨":2031,"審":2032,"寫":2033,"寬":2034,"寮":2035,"寰":2036,"寵":2037,"寶":2038,"寸":2039,"对":2040,"寺":2041,"寿":2042,"封":2043,"射":2044,"尅":2045,"將":2046,"專":2047,"尉":2048,"尊":2049,"尋":2050,"對":2051,"導":2052,"小":2053,"少":2054,"尔":2055,"尕":2056,"尖":2057,"尙":2058,"尚":2059,"尤":2060,"尧":2061,"就":2062,"尸":2063,"尹":2064,"尺":2065,"尻":2066,"尼":2067,"尾":2068,"尿":2069,"局":2070,"居":2071,"屆":2072,"屈":2073,"屋":2074,"屍":2075,"屎":2076,"屐":2077,"屑":2078,"展":2079,"屛":2080,"屠":2081,"屡":2082,"屢":2083,"層":2084,"履":2085,"屨":2086,"屬":2087,"屯":2088,"山":2089,"屹":2090,"岊":2091,"岐":2092,"岑":2093,"岗":2094,"岛":2095,"岡":2096,"岦":2097,"岩":2098,"岫":2099,"岬":2100,"岭":2101,"岱":2102,"岳":2103,"岵":2104,"岷":2105,"岸":2106,"岾":2107,"峀":2108,"峋":2109,"峒":2110,"峓":2111,"峘":2112,"峙":2113,"峨":2114,"峪":2115,"峭":2116,"峯":2117,"峰":2118,"峴":2119,"島":2120,"峻":2121,"峼":2122,"峽":2123,"崁":2124,"崇":2125,"崋":2126,"崍":2127,"崎":2128,"崐":2129,"崑":2130,"崔":2131,"崖":2132,"崗":2133,"崙":2134,"崛":2135,"崢":2136,"崤":2137,"崧":2138,"崩":2139,"嵇":2140,"嵋":2141,"嵌":2142,"嵐":2143,"嵒":2144,"嵓":2145,"嵙":2146,"嵩":2147,"嵬":2148,"嵯":2149,"嶄":2150,"嶋":2151,"嶙":2152,"嶝":2153,"嶠":2154,"嶪":2155,"嶮":2156,"嶰":2157,"嶸":2158,"嶺":2159,"嶼":2160,"嶽":2161,"巍":2162,"巒":2163,"巓":2164,"巖":2165,"巚":2166,"川":2167,"州":2168,"巡":2169,"巢":2170,"工":2171,"左":2172,"巧":2173,"巨":2174,"巩":2175,"巫":2176,"差":2177,"己":2178,"已":2179,"巳":2180,"巴":2181,"巵":2182,"巷":2183,"巹":2184,"巽":2185,"巾":2186,"市":2187,"布":2188,"帆":2189,"师":2190,"希":2191,"帑":2192,"帒":2193,"帔":2194,"帕":2195,"帖":2196,"帙":2197,"帚":2198,"帛":2199,"帝":2200,"帤":2201,"帥":2202,"带":2203,"帨":2204,"師":2205,"席":2206,"帳":2207,"帶":2208,"帷":2209,"常":2210,"帽":2211,"幀":2212,"幄":2213,"幅":2214,"幇":2215,"幌":2216,"幔":2217,"幕":2218,"幗":2219,"幘":2220,"幞":2221,"幟":2222,"幡":2223,"幢":2224,"幣":2225,"干":2226,"平":2227,"年":2228,"并":2229,"幷":2230,"幸":2231,"幹":2232,"幺":2233,"幻":2234,"幼":2235,"幽":2236,"幾":2237,"广":2238,"庄":2239,"庆":2240,"庇":2241,"床":2242,"序":2243,"库":2244,"底":2245,"庖":2246,"店":2247,"庚":2248,"府":2249,"庠":2250,"度":2251,"座":2252,"庫":2253,"庭":2254,"庳":2255,"庵":2256,"庶":2257,"康":2258,"庸":2259,"庾":2260,"廁":2261,"廂":2262,"廆":2263,"廈":2264,"廉":2265,"廊":2266,"廐":2267,"廓":2268,"廖":2269,"廚":2270,"廛":2271,"廟":2272,"廠":2273,"廡":2274,"廢":2275,"廣":2276,"廨":2277,"廩":2278,"廬":2279,"廳":2280,"延":2281,"廷":2282,"建":2283,"廻":2284,"廾":2285,"开":2286,"弁":2287,"弄":2288,"弊":2289,"弋":2290,"式":2291,"弐":2292,"弑":2293,"弓":2294,"弔":2295,"引":2296,"弗":2297,"弘":2298,"弛":2299,"弟":2300,"张":2301,"弢":2302,"弦":2303,"弧":2304,"弨":2305,"弩":2306,"弭":2307,"弱":2308,"張":2309,"弹":2310,"强":2311,"弼":2312,"彈":2313,"彊":2314,"彌":2315,"彍":2316,"彎":2317,"彖":2318,"彗":2319,"彘":2320,"彙":2321,"彛":2322,"彝":2323,"彠":2324,"形":2325,"彤":2326,"彦":2327,"彧":2328,"彩":2329,"彪":2330,"彫":2331,"彬":2332,"彭":2333,"彰":2334,"影":2335,"彷":2336,"役":2337,"彼":2338,"往":2339,"征":2340,"徂":2341,"待":2342,"徇":2343,"徊":2344,"律":2345,"後":2346,"徐":2347,"徑":2348,"徒":2349,"得":2350,"徙":2351,"從":2352,"徠":2353,"御":2354,"徧":2355,"徨":2356,"復":2357,"循":2358,"徫":2359,"徭":2360,"微":2361,"徳":2362,"徵":2363,"德":2364,"徹":2365,"徼":2366,"徽":2367,"心":2368,"必":2369,"忆":2370,"忉":2371,"忌":2372,"忍":2373,"忔":2374,"志":2375,"忘":2376,"忙":2377,"忝":2378,"忠":2379,"忤":2380,"快":2381,"忱":2382,"念":2383,"忻":2384,"忽":2385,"忿":2386,"态":2387,"怊":2388,"怎":2389,"怒":2390,"怗":2391,"怛":2392,"怜":2393,"思":2394,"怠":2395,"怡":2396,"急":2397,"性":2398,"怨":2399,"怪":2400,"怯":2401,"总":2402,"恁":2403,"恂":2404,"恃":2405,"恆":2406,"恊":2407,"恍":2408,"恐":2409,"恒":2410,"恕":2411,"恙":2412,"恚":2413,"恢":2414,"恣":2415,"恤":2416,"恥":2417,"恦":2418,"恨":2419,"恩":2420,"恪":2421,"恬":2422,"恭":2423,"息":2424,"恰":2425,"恵":2426,"悅":2427,"悉":2428,"悌":2429,"悍":2430,"悏":2431,"悔":2432,"悖":2433,"悛":2434,"悟":2435,"悠":2436,"患":2437,"悤":2438,"悬":2439,"悰":2440,"悱":2441,"悲":2442,"悳":2443,"悴":2444,"悵":2445,"悶":2446,"悸":2447,"悼":2448,"悽":2449,"情":2450,"惆":2451,"惇":2452,"惑":2453,"惕":2454,"惘":2455,"惚":2456,"惜":2457,"惟":2458,"惠":2459,"惡":2460,"惰":2461,"惱":2462,"惲":2463,"想":2464,"惶":2465,"惹":2466,"惺":2467,"惻":2468,"愁":2469,"愆":2470,"愈":2471,"愉":2472,"愊":2473,"愍":2474,"愎":2475,"意":2476,"愔":2477,"愕":2478,"愖":2479,"愚":2480,"愛":2481,"感":2482,"愧":2483,"愴":2484,"愷":2485,"愼":2486,"愾":2487,"愿":2488,"慄":2489,"慈":2490,"慊":2491,"態":2492,"慎":2493,"慕":2494,"慘":2495,"慙":2496,"慜":2497,"慟":2498,"慢":2499,"慣":2500,"慤":2501,"慥":2502,"慧":2503,"慨":2504,"慮":2505,"慰":2506,"慳":2507,"慵":2508,"慶":2509,"慷":2510,"慾":2511,"憂":2512,"憎":2513,"憐":2514,"憑":2515,"憔":2516,"憙":2517,"憚":2518,"憤":2519,"憧":2520,"憩":2521,"憫":2522,"憬":2523,"憲":2524,"憶":2525,"憾":2526,"懃":2527,"懇":2528,"懈":2529,"應":2530,"懊":2531,"懋":2532,"懌":2533,"懠":2534,"懦":2535,"懩":2536,"懲":2537,"懶":2538,"懷":2539,"懸":2540,"懺":2541,"懼":2542,"懽":2543,"懾":2544,"懿":2545,"戀":2546,"戈":2547,"戊":2548,"戌":2549,"戍":2550,"戎":2551,"戏":2552,"成":2553,"我":2554,"戒":2555,"戔":2556,"或":2557,"戚":2558,"戞":2559,"戟":2560,"戡":2561,"戢":2562,"截":2563,"戮":2564,"戰":2565,"戱":2566,"戲":2567,"戴":2568,"戵":2569,"戶":2570,"户":2571,"戾":2572,"房":2573,"所":2574,"扁":2575,"扃":2576,"扇":2577,"扈":2578,"扉":2579,"手":2580,"才":2581,"扎":2582,"扐":2583,"打":2584,"托":2585,"扮":2586,"扱":2587,"扶":2588,"批":2589,"扼":2590,"承":2591,"技":2592,"抃":2593,"抄":2594,"抇":2595,"抉":2596,"把":2597,"抎":2598,"抑":2599,"抒":2600,"抓":2601,"投":2602,"抗":2603,"折":2604,"抛":2605,"报":2606,"披":2607,"抱":2608,"抵":2609,"抹":2610,"押":2611,"抽":2612,"拂":2613,"担":2614,"拇":2615,"拈":2616,"拉":2617,"拍":2618,"拏":2619,"拐":2620,"拒":2621,"拓":2622,"拔":2623,"拖":2624,"拗":2625,"拘":2626,"拙":2627,"招":2628,"拜":2629,"择":2630,"括":2631,"拭":2632,"拯":2633,"拱":2634,"拳":2635,"拴":2636,"拶":2637,"拷":2638,"拽":2639,"拾":2640,"拿":2641,"持":2642,"指":2643,"挈":2644,"按":2645,"挎":2646,"挑":2647,"挫":2648,"振":2649,"挹":2650,"挺":2651,"挽":2652,"挾":2653,"捄":2654,"捉":2655,"捌":2656,"捏":2657,"捐":2658,"捕":2659,"捧":2660,"捨":2661,"捩":2662,"捫":2663,"据":2664,"捲":2665,"捷":2666,"捺":2667,"捻":2668,"掃":2669,"掇":2670,"授":2671,"掉":2672,"掌":2673,"排":2674,"掖":2675,"掘":2676,"掛":2677,"掞":2678,"採":2679,"探":2680,"接":2681,"控":2682,"推":2683,"掩":2684,"措":2685,"掬":2686,"揀":2687,"揆":2688,"描":2689,"提":2690,"揑":2691,"揖":2692,"揚":2693,"換":2694,"揜":2695,"握":2696,"揣":2697,"揭":2698,"揮":2699,"揲":2700,"援":2701,"揵":2702,"揷":2703,"搆":2704,"搉":2705,"損":2706,"搏":2707,"搔":2708,"搖":2709,"搗":2710,"搜":2711,"搢":2712,"搬":2713,"搭":2714,"搰":2715,"携":2716,"搾":2717,"摆":2718,"摘":2719,"摛":2720,"摟":2721,"摠":2722,"摧":2723,"摩":2724,"摭":2725,"摯":2726,"摶":2727,"摸":2728,"摹":2729,"摺":2730,"撈":2731,"撐":2732,"撑":2733,"撒":2734,"撓":2735,"撝":2736,"撞":2737,"撤":2738,"撥":2739,"撩":2740,"撫":2741,"播":2742,"撮":2743,"撰":2744,"撲":2745,"撼":2746,"擁":2747,"擄":2748,"擅":2749,"擇":2750,"擊":2751,"操":2752,"擎":2753,"擒":2754,"擔":2755,"擘":2756,"據":2757,"擡":2758,"擢":2759,"擣":2760,"擥":2761,"擦":2762,"擧":2763,"擬":2764,"擯":2765,"擲":2766,"擴":2767,"擺":2768,"擾":2769,"攀":2770,"攁":2771,"攘":2772,"攝":2773,"攢":2774,"攧":2775,"攪":2776,"攬":2777,"支":2778,"收":2779,"攷":2780,"攸":2781,"改":2782,"攻":2783,"放":2784,"政":2785,"故":2786,"效":2787,"敍":2788,"敎":2789,"敏":2790,"救":2791,"敔":2792,"敕":2793,"敖":2794,"敗":2795,"敘":2796,"教":2797,"敝":2798,"敞":2799,"敢":2800,"散":2801,"敦":2802,"敬":2803,"敭":2804,"敲":2805,"整":2806,"敵":2807,"敷":2808,"數":2809,"敺":2810,"敾":2811,"斂":2812,"斃":2813,"斄":2814,"斅":2815,"文":2816,"斉":2817,"斌":2818,"斐":2819,"斑":2820,"斗":2821,"料":2822,"斛":2823,"斜":2824,"斝":2825,"斡":2826,"斤":2827,"斥":2828,"斧":2829,"斫":2830,"斬":2831,"断":2832,"斯":2833,"新":2834,"斳":2835,"斷":2836,"方":2837,"於":2838,"施":2839,"旀":2840,"旁":2841,"旃":2842,"旅":2843,"旋":2844,"旌":2845,"族":2846,"旒":2847,"旕":2848,"旗":2849,"无":2850,"旣":2851,"日":2852,"旦":2853,"旨":2854,"早":2855,"旬":2856,"旭":2857,"旱":2858,"旴":2859,"旵":2860,"旺":2861,"旻":2862,"旼":2863,"旽":2864,"旿":2865,"昀":2866,"昆":2867,"昇":2868,"昉":2869,"昊":2870,"昌":2871,"明":2872,"昏":2873,"昑":2874,"易":2875,"昔":2876,"昕":2877,"昞":2878,"星":2879,"映":2880,"春":2881,"昧":2882,"昨":2883,"昫":2884,"昭":2885,"是":2886,"昰":2887,"昱":2888,"昴":2889,"昶":2890,"昷":2891,"昺":2892,"昻":2893,"晁":2894,"時":2895,"晃":2896,"晉":2897,"晋":2898,"晏":2899,"晙":2900,"晚":2901,"晛":2902,"晝":2903,"晟":2904,"晡":2905,"晢":2906,"晤":2907,"晥":2908,"晦":2909,"晧":2910,"晨":2911,"晩":2912,"晬":2913,"普":2914,"景":2915,"晳":2916,"晴":2917,"晶":2918,"晷":2919,"智":2920,"暄":2921,"暇":2922,"暈":2923,"暉":2924,"暎":2925,"暐":2926,"暑":2927,"暖":2928,"暗":2929,"暘":2930,"暝":2931,"暠":2932,"暢":2933,"暫":2934,"暮":2935,"暴":2936,"暹":2937,"暻":2938,"暾":2939,"暿":2940,"曄":2941,"曆":2942,"曇":2943,"曉":2944,"曙":2945,"曛":2946,"曜":2947,"曝":2948,"曠":2949,"曦":2950,"曬":2951,"曮":2952,"曰":2953,"曲":2954,"曳":2955,"更":2956,"曷":2957,"書":2958,"曹":2959,"曺":2960,"曼":2961,"曾":2962,"替":2963,"最":2964,"會":2965,"月":2966,"有":2967,"朋":2968,"服":2969,"朏":2970,"朔":2971,"朕":2972,"朗":2973,"望":2974,"朝":2975,"朞":2976,"期":2977,"朦":2978,"朧":2979,"木":2980,"未":2981,"末":2982,"本":2983,"札":2984,"朱":2985,"朴":2986,"朶":2987,"朹":2988,"朽":2989,"杅":2990,"杆":2991,"杉":2992,"杌":2993,"李":2994,"杏":2995,"材":2996,"村":2997,"杓":2998,"杖":2999,"杜":3000,"杞":3001,"束":3002,"杠":3003,"条":3004,"来":3005,"杭":3006,"杮":3007,"杯":3008,"杰":3009,"東":3010,"杲":3011,"杳":3012,"杴":3013,"杵":3014,"杻":3015,"松":3016,"板":3017,"枋":3018,"析":3019,"枓":3020,"枕":3021,"林":3022,"枚":3023,"果":3024,"枝":3025,"枯":3026,"枰":3027,"枳":3028,"架":3029,"枸":3030,"枻":3031,"枾":3032,"柄":3033,"柏":3034,"某":3035,"柑":3036,"柒":3037,"染":3038,"柔":3039,"柘":3040,"柚":3041,"柜":3042,"柟":3043,"柢":3044,"查":3045,"柩":3046,"柬":3047,"柯":3048,"柰":3049,"柱":3050,"柲":3051,"柳":3052,"柴":3053,"柵":3054,"査":3055,"柿":3056,"栃":3057,"栍":3058,"栏":3059,"栐":3060,"树":3061,"栖":3062,"栗":3063,"栞":3064,"校":3065,"栢":3066,"栩":3067,"株":3068,"栮":3069,"栱":3070,"栴":3071,"样":3072,"核":3073,"根":3074,"栻":3075,"格":3076,"栽":3077,"桀":3078,"桂":3079,"桃":3080,"框":3081,"案":3082,"桐":3083,"桑":3084,"桓":3085,"桜":3086,"档":3087,"桦":3088,"桴":3089,"桶":3090,"梁":3091,"梅":3092,"梆":3093,"梓":3094,"梔":3095,"梗":3096,"梛":3097,"條":3098,"梟":3099,"梡":3100,"梢":3101,"梧":3102,"梨":3103,"梭":3104,"梯":3105,"械":3106,"梱":3107,"梳":3108,"梴":3109,"梵":3110,"梶":3111,"棄":3112,"棉":3113,"棊":3114,"棋":3115,"棍":3116,"棒":3117,"棕":3118,"棗":3119,"棘":3120,"棚":3121,"棟":3122,"棠":3123,"棡":3124,"棣":3125,"棧":3126,"棨":3127,"森":3128,"棯":3129,"棱":3130,"棲":3131,"棹":3132,"棺":3133,"椅":3134,"椋":3135,"植":3136,"椎":3137,"椒":3138,"椧":3139,"椴":3140,"椵":3141,"椽":3142,"椿":3143,"楂":3144,"楊":3145,"楑":3146,"楓":3147,"楔":3148,"楕":3149,"楗":3150,"楙":3151,"楚":3152,"楝":3153,"楞":3154,"楠":3155,"楡":3156,"楣":3157,"楥":3158,"楨":3159,"楫":3160,"楬":3161,"業":3162,"楮":3163,"楯":3164,"楳":3165,"極":3166,"楶":3167,"楷":3168,"楸":3169,"楹":3170,"楼":3171,"榊":3172,"榍":3173,"榘":3174,"榛":3175,"榜":3176,"榟":3177,"榥":3178,"榧":3179,"榭":3180,"榮":3181,"榴":3182,"榻":3183,"槁":3184,"槃":3185,"槊":3186,"構":3187,"槌":3188,"槍":3189,"槎":3190,"槐":3191,"槓":3192,"槧":3193,"槨":3194,"槩":3195,"槪":3196,"槵":3197,"槶":3198,"槻":3199,"槼":3200,"槽":3201,"槿":3202,"樁":3203,"樂":3204,"樉":3205,"樊":3206,"樋":3207,"樑":3208,"樓":3209,"樗":3210,"樘":3211,"標":3212,"樞":3213,"樟":3214,"模":3215,"樣":3216,"横":3217,"樵":3218,"樸":3219,"樹":3220,"樺":3221,"樽":3222,"橃":3223,"橄":3224,"橈":3225,"橋":3226,"橐":3227,"橑":3228,"橒":3229,"橓":3230,"橘":3231,"橚":3232,"機":3233,"橡":3234,"橦":3235,"橫":3236,"橵":3237,"橿":3238,"檀":3239,"檃":3240,"檄":3241,"檇":3242,"檉":3243,"檍":3244,"檎":3245,"檐":3246,"檗":3247,"檜":3248,"檟":3249,"檢":3250,"檣":3251,"檮":3252,"檻":3253,"檿":3254,"櫂":3255,"櫃":3256,"櫓":3257,"櫛":3258,"櫝":3259,"櫟":3260,"櫨":3261,"櫶":3262,"櫻":3263,"欄":3264,"權":3265,"欌":3266,"欑":3267,"欒":3268,"欖":3269,"欞":3270,"欠":3271,"次":3272,"欣":3273,"欧":3274,"欲":3275,"欹":3276,"欺":3277,"欽":3278,"款":3279,"歃":3280,"歆":3281,"歇":3282,"歉":3283,"歌":3284,"歎":3285,"歐":3286,"歙":3287,"歚":3288,"歛":3289,"歟":3290,"歠":3291,"歡":3292,"止":3293,"正":3294,"此":3295,"步":3296,"武":3297,"歧":3298,"歪":3299,"歲":3300,"歷":3301,"歸":3302,"歹":3303,"死":3304,"歿":3305,"殃":3306,"殆":3307,"殉":3308,"殊":3309,"殓":3310,"殖":3311,"殘":3312,"殛":3313,"殞":3314,"殡":3315,"殤":3316,"殮":3317,"殯":3318,"段":3319,"殷":3320,"殺":3321,"殼":3322,"殿":3323,"毁":3324,"毅":3325,"毆":3326,"毋":3327,"毌":3328,"母":3329,"每":3330,"毒":3331,"毓":3332,"比":3333,"毕":3334,"毖":3335,"毗":3336,"毘":3337,"毛":3338,"毫":3339,"毬":3340,"毯":3341,"氅":3342,"氆":3343,"氇":3344,"氈":3345,"氊":3346,"氎":3347,"氏":3348,"氐":3349,"民":3350,"氓":3351,"气":3352,"氣":3353,"水":3354,"氷":3355,"永":3356,"氾":3357,"汀":3358,"汁":3359,"求":3360,"汉":3361,"汋":3362,"汎":3363,"汐":3364,"汕":3365,"汗":3366,"汚":3367,"汜":3368,"汝":3369,"江":3370,"池":3371,"汤":3372,"汨":3373,"汪":3374,"汭":3375,"汰":3376,"汲":3377,"汴":3378,"汶":3379,"決":3380,"汽":3381,"汾":3382,"沁":3383,"沂":3384,"沃":3385,"沅":3386,"沆":3387,"沈":3388,"沉":3389,"沌":3390,"沐":3391,"沒":3392,"沓":3393,"沔":3394,"沖":3395,"沘":3396,"沙":3397,"沚":3398,"沛":3399,"沟":3400,"没":3401,"沫":3402,"沬":3403,"沮":3404,"沰":3405,"沱":3406,"河":3407,"沸":3408,"油":3409,"治":3410,"沼":3411,"沽":3412,"沾":3413,"沿":3414,"況":3415,"泂":3416,"泄":3417,"泉":3418,"泊":3419,"泌":3420,"泓":3421,"法":3422,"泗":3423,"泚":3424,"泛":3425,"泠":3426,"泡":3427,"波":3428,"泣":3429,"泥":3430,"注":3431,"泬":3432,"泮":3433,"泯":3434,"泰":3435,"泳":3436,"泽":3437,"洁":3438,"洄":3439,"洊":3440,"洋":3441,"洌":3442,"洑":3443,"洗":3444,"洙":3445,"洛":3446,"洞":3447,"洣":3448,"津":3449,"洪":3450,"洫":3451,"洬":3452,"洮":3453,"洲":3454,"洵":3455,"洸":3456,"洹":3457,"洺":3458,"活":3459,"洽":3460,"派":3461,"流":3462,"浑":3463,"浙":3464,"浚":3465,"浜":3466,"浣":3467,"浦":3468,"浩":3469,"浪":3470,"浬":3471,"浮":3472,"浯":3473,"浴":3474,"海":3475,"浸":3476,"浹":3477,"浿":3478,"涂":3479,"涅":3480,"涇":3481,"消":3482,"涉":3483,"涌":3484,"涑":3485,"涓":3486,"涕":3487,"润":3488,"涪":3489,"涯":3490,"液":3491,"涴":3492,"涵":3493,"涸":3494,"涼":3495,"涿":3496,"淀":3497,"淄":3498,"淅":3499,"淆":3500,"淇":3501,"淈":3502,"淋":3503,"淐":3504,"淑":3505,"淘":3506,"淙":3507,"淚":3508,"淡":3509,"淥":3510,"淨":3511,"淪":3512,"淫":3513,"淮":3514,"淰":3515,"深":3516,"淳":3517,"淵":3518,"混":3519,"淸":3520,"淹":3521,"淺":3522,"添":3523,"清":3524,"済":3525,"渗":3526,"渘":3527,"渙":3528,"渚":3529,"減":3530,"渝":3531,"渠":3532,"渡":3533,"渣":3534,"渤":3535,"渥":3536,"渦":3537,"温":3538,"渫":3539,"測":3540,"渭":3541,"港":3542,"渲":3543,"渴":3544,"渷":3545,"游":3546,"渺":3547,"渻":3548,"渼":3549,"渾":3550,"湄":3551,"湊":3552,"湋":3553,"湌":3554,"湍":3555,"湖":3556,"湘":3557,"湛":3558,"湜":3559,"湞":3560,"湟":3561,"湧":3562,"湫":3563,"湮":3564,"湯":3565,"湲":3566,"溉":3567,"源":3568,"準":3569,"溜":3570,"溝":3571,"溟":3572,"溢":3573,"溥":3574,"溧":3575,"溪":3576,"溫":3577,"溯":3578,"溱":3579,"溶":3580,"溺":3581,"滄":3582,"滅":3583,"滇":3584,"滈":3585,"滉":3586,"滋":3587,"滌":3588,"滎":3589,"滑":3590,"滓":3591,"滕":3592,"满":3593,"滩":3594,"滬":3595,"滯":3596,"滴":3597,"滸":3598,"滾":3599,"滿":3600,"漁":3601,"漂":3602,"漆":3603,"漉":3604,"漏":3605,"漑":3606,"漓":3607,"演":3608,"漕":3609,"漠":3610,"漢":3611,"漣":3612,"漪":3613,"漫":3614,"漬":3615,"漱":3616,"漲":3617,"漳":3618,"漵":3619,"漸":3620,"漹":3621,"漻":3622,"漼":3623,"漿":3624,"潁":3625,"潑":3626,"潔":3627,"潕":3628,"潗":3629,"潘":3630,"潙":3631,"潛":3632,"潝":3633,"潞":3634,"潟":3635,"潢":3636,"潤":3637,"潦":3638,"潭":3639,"潮":3640,"潺":3641,"潼":3642,"潽":3643,"潾":3644,"澁":3645,"澂":3646,"澄":3647,"澆":3648,"澈":3649,"澋":3650,"澍":3651,"澎":3652,"澐":3653,"澔":3654,"澕":3655,"澗":3656,"澡":3657,"澣":3658,"澤":3659,"澧":3660,"澮":3661,"澯":3662,"澱":3663,"澳":3664,"澹":3665,"澺":3666,"激":3667,"濁":3668,"濂":3669,"濃":3670,"濈":3671,"濊":3672,"濕":3673,"濘":3674,"濛":3675,"濞":3676,"濟":3677,"濠":3678,"濡":3679,"濤":3680,"濩":3681,"濫":3682,"濬":3683,"濮":3684,"濯":3685,"濰":3686,"濱":3687,"濶":3688,"濺":3689,"濾":3690,"瀁":3691,"瀅":3692,"瀆":3693,"瀉":3694,"瀋":3695,"瀑":3696,"瀗":3697,"瀘":3698,"瀚":3699,"瀛":3700,"瀝":3701,"瀞":3702,"瀟":3703,"瀣":3704,"瀦":3705,"瀨":3706,"瀬":3707,"瀯":3708,"瀰":3709,"瀷":3710,"瀼":3711,"瀾":3712,"灌":3713,"灑":3714,"灕":3715,"灘":3716,"灝":3717,"灞":3718,"灣":3719,"灤":3720,"灦":3721,"火":3722,"灯":3723,"灰":3724,"灵":3725,"灸":3726,"灼":3727,"災":3728,"灾":3729,"炅":3730,"炆":3731,"炊":3732,"炎":3733,"炘":3734,"炙":3735,"炡":3736,"炤":3737,"炫":3738,"炬":3739,"炭":3740,"炮":3741,"炯":3742,"炳":3743,"炸":3744,"点":3745,"炻":3746,"烂":3747,"烆":3748,"烈":3749,"烋":3750,"烏":3751,"烘":3752,"烙":3753,"烟":3754,"烤":3755,"热":3756,"烹":3757,"烽":3758,"焄":3759,"焉":3760,"焚":3761,"焜":3762,"焞":3763,"無":3764,"焦":3765,"焰":3766,"然":3767,"煃":3768,"煆":3769,"煇":3770,"煉":3771,"煌":3772,"煎":3773,"煐":3774,"煖":3775,"煙":3776,"煜":3777,"煞":3778,"煤":3779,"煥":3780,"煦":3781,"照":3782,"煩":3783,"煬":3784,"煮":3785,"熀":3786,"熊":3787,"熏":3788,"熒":3789,"熔":3790,"熙":3791,"熟":3792,"熢":3793,"熤":3794,"熥":3795,"熨":3796,"熱":3797,"熲":3798,"熹":3799,"熺":3800,"熽":3801,"熾":3802,"燁":3803,"燃":3804,"燈":3805,"燉":3806,"燎":3807,"燐":3808,"燒":3809,"燔":3810,"燕":3811,"燙":3812,"營":3813,"燥":3814,"燦":3815,"燧":3816,"燭":3817,"燮":3818,"燼":3819,"燾":3820,"燿":3821,"爀":3822,"爆":3823,"爐":3824,"爛":3825,"爪":3826,"爬":3827,"爭":3828,"爰":3829,"爱":3830,"爲":3831,"爵":3832,"父":3833,"爺":3834,"爻":3835,"爽":3836,"爾":3837,"牀":3838,"牆":3839,"片":3840,"版":3841,"牋":3842,"牌":3843,"牒":3844,"牓":3845,"牔":3846,"牕":3847,"牖":3848,"牘":3849,"牙":3850,"牛":3851,"牝":3852,"牟":3853,"牡":3854,"牢":3855,"牧":3856,"物":3857,"牲":3858,"牴":3859,"特":3860,"牽":3861,"犀":3862,"犁":3863,"犍":3864,"犒":3865,"犟":3866,"犢":3867,"犧":3868,"犬":3869,"犭":3870,"犯":3871,"状":3872,"狀":3873,"狂":3874,"狄":3875,"狌":3876,"狐":3877,"狗":3878,"狛":3879,"狠":3880,"狡":3881,"狩":3882,"独":3883,"狶":3884,"狷":3885,"狸":3886,"狹":3887,"狻":3888,"狼":3889,"猇":3890,"猊":3891,"猎":3892,"猗":3893,"猛":3894,"猜":3895,"猝":3896,"猢":3897,"猥":3898,"猨":3899,"猪":3900,"猫":3901,"献":3902,"猱":3903,"猴":3904,"猶":3905,"猷":3906,"猻":3907,"猾":3908,"猿":3909,"獄":3910,"獅":3911,"獍":3912,"獎":3913,"獐":3914,"獒":3915,"獖":3916,"獜":3917,"獨":3918,"獲":3919,"獵":3920,"獸":3921,"獺":3922,"獻":3923,"玄":3924,"玆":3925,"率":3926,"玉":3927,"王":3928,"玏":3929,"玔":3930,"玘":3931,"玛":3932,"玜":3933,"玟":3934,"玡":3935,"玢":3936,"玦":3937,"玧":3938,"玩":3939,"环":3940,"玲":3941,"玳":3942,"玹":3943,"玽":3944,"珀":3945,"珂":3946,"珈":3947,"珉":3948,"珊":3949,"珍":3950,"珏":3951,"珖":3952,"珙":3953,"珚":3954,"珛":3955,"珝":3956,"珞":3957,"珠":3958,"珣":3959,"珤":3960,"珥":3961,"珦":3962,"珩":3963,"珪":3964,"班":3965,"珲":3966,"珹":3967,"珽":3968,"現":3969,"琁":3970,"球":3971,"琅":3972,"理":3973,"琇":3974,"琉":3975,"琊":3976,"琓":3977,"琔":3978,"琚":3979,"琛":3980,"琠":3981,"琡":3982,"琢":3983,"琥":3984,"琦":3985,"琨":3986,"琪":3987,"琫":3988,"琬":3989,"琮":3990,"琯":3991,"琰":3992,"琲":3993,"琳":3994,"琴":3995,"琵":3996,"琶":3997,"琹":3998,"琺":3999,"琿":4000,"瑀":4001,"瑁":4002,"瑃":4003,"瑄":4004,"瑅":4005,"瑈":4006,"瑊":4007,"瑋":4008,"瑎":4009,"瑔":4010,"瑕":4011,"瑗":4012,"瑙":4013,"瑚":4014,"瑛":4015,"瑜":4016,"瑞":4017,"瑟":4018,"瑠":4019,"瑢":4020,"瑣":4021,"瑤":4022,"瑨":4023,"瑩":4024,"瑪":4025,"瑬":4026,"瑭":4027,"瑯":4028,"瑱":4029,"瑶":4030,"瑺":4031,"瑾":4032,"璂":4033,"璃":4034,"璆":4035,"璇":4036,"璈":4037,"璉":4038,"璋":4039,"璘":4040,"璚":4041,"璛":4042,"璜":4043,"璞":4044,"璟":4045,"璠":4046,"璡":4047,"璣":4048,"璥":4049,"璧":4050,"璨":4051,"璪":4052,"環":4053,"璲":4054,"璵":4055,"璶":4056,"璹":4057,"璽":4058,"璿":4059,"瓊":4060,"瓔":4061,"瓘":4062,"瓚":4063,"瓛":4064,"瓜":4065,"瓠":4066,"瓢":4067,"瓣":4068,"瓦":4069,"瓮":4070,"瓷":4071,"瓿":4072,"甀":4073,"甁":4074,"甄":4075,"甑":4076,"甓":4077,"甕":4078,"甘":4079,"甚":4080,"甛":4081,"生":4082,"産":4083,"甥":4084,"用":4085,"甩":4086,"甪":4087,"甫":4088,"甬":4089,"田":4090,"由":4091,"甲":4092,"申":4093,"男":4094,"甸":4095,"町":4096,"画":4097,"畊":4098,"界":4099,"畎":4100,"畏":4101,"畑":4102,"畓":4103,"畔":4104,"留":4105,"畜":4106,"畝":4107,"畠":4108,"畢":4109,"略":4110,"畦":4111,"番":4112,"畫":4113,"畯":4114,"異":4115,"畲":4116,"畵":4117,"當":4118,"畸":4119,"畹":4120,"畺":4121,"畿":4122,"疄":4123,"疆":4124,"疇":4125,"疊":4126,"疋":4127,"疎":4128,"疏":4129,"疑":4130,"疒":4131,"疝":4132,"疣":4133,"疫":4134,"疲":4135,"疳":4136,"疹":4137,"疼":4138,"疽":4139,"疾":4140,"病":4141,"症":4142,"痒":4143,"痕":4144,"痘":4145,"痛":4146,"痢":4147,"痰":4148,"痲":4149,"痴":4150,"痺":4151,"痻":4152,"瘟":4153,"瘠":4154,"瘡":4155,"瘤":4156,"瘦":4157,"瘧":4158,"瘼":4159,"療":4160,"癌":4161,"癎":4162,"癒":4163,"癖":4164,"癘":4165,"癞":4166,"癡":4167,"癢":4168,"癤":4169,"癨":4170,"癩":4171,"癰":4172,"癲":4173,"癸":4174,"登":4175,"發":4176,"白":4177,"百":4178,"皁":4179,"皂":4180,"的":4181,"皆":4182,"皇":4183,"皋":4184,"皎":4185,"皐":4186,"皓":4187,"皖":4188,"皛":4189,"皜":4190,"皦":4191,"皪":4192,"皮":4193,"皴":4194,"皺":4195,"皿":4196,"盂":4197,"盃":4198,"盆":4199,"盈":4200,"益":4201,"盌":4202,"盍":4203,"盎":4204,"盒":4205,"盔":4206,"盖":4207,"盛":4208,"盜":4209,"盞":4210,"盟":4211,"盡":4212,"監":4213,"盤":4214,"盥":4215,"盧":4216,"盪":4217,"目":4218,"盲":4219,"直":4220,"相":4221,"盾":4222,"省":4223,"眄":4224,"眉":4225,"看":4226,"県":4227,"眞":4228,"真":4229,"眠":4230,"眦":4231,"眨":4232,"眩":4233,"眭":4234,"眯":4235,"眷":4236,"眺":4237,"眼":4238,"着":4239,"睍":4240,"睛":4241,"睟":4242,"睠":4243,"睡":4244,"睢":4245,"督":4246,"睦":4247,"睬":4248,"睹":4249,"睺":4250,"睿":4251,"瞉":4252,"瞋":4253,"瞍":4254,"瞞":4255,"瞬":4256,"瞰":4257,"瞱":4258,"瞳":4259,"瞻":4260,"瞽":4261,"瞿":4262,"矗":4263,"矛":4264,"矢":4265,"矣":4266,"知":4267,"矩":4268,"短":4269,"矮":4270,"矯":4271,"石":4272,"矺":4273,"砂":4274,"砌":4275,"砑":4276,"砒":4277,"砥":4278,"砦":4279,"砧":4280,"砬":4281,"砭":4282,"砯":4283,"砲":4284,"破":4285,"砻":4286,"础":4287,"硃":4288,"硅":4289,"硋":4290,"硏":4291,"硝":4292,"硨":4293,"硫":4294,"硬":4295,"硯":4296,"碁":4297,"碌":4298,"碍":4299,"碎":4300,"碏":4301,"碑":4302,"碔":4303,"碗":4304,"碞":4305,"碟":4306,"碣":4307,"碧":4308,"碩":4309,"碬":4310,"碭":4311,"碲":4312,"確":4313,"碼":4314,"碾":4315,"磁":4316,"磊":4317,"磋":4318,"磌":4319,"磎":4320,"磏":4321,"磐":4322,"磖":4323,"磙":4324,"磚":4325,"磧":4326,"磨":4327,"磬":4328,"磯":4329,"磵":4330,"磷":4331,"磻":4332,"磼":4333,"磾":4334,"礁":4335,"礌":4336,"礎":4337,"礦":4338,"礨":4339,"礩":4340,"礪":4341,"礫":4342,"礬":4343,"礱":4344,"礴":4345,"示":4346,"礼":4347,"礽":4348,"社":4349,"祀":4350,"祁":4351,"祇":4352,"祈":4353,"祉":4354,"祏":4355,"祐":4356,"祔":4357,"祕":4358,"祖":4359,"祗":4360,"祘":4361,"祚":4362,"祜":4363,"祝":4364,"神":4365,"祠":4366,"祥":4367,"祦":4368,"祧":4369,"票":4370,"祭":4371,"祹":4372,"祺":4373,"祿":4374,"禀":4375,"禁":4376,"禅":4377,"禊":4378,"禍":4379,"禎":4380,"福":4381,"禑":4382,"禔":4383,"禕":4384,"禙":4385,"禛":4386,"禦":4387,"禧":4388,"禪":4389,"禫":4390,"禬":4391,"禮":4392,"禰":4393,"禱":4394,"禳":4395,"禹":4396,"禺":4397,"离":4398,"禽":4399,"禾":4400,"禿":4401,"秀":4402,"私":4403,"秉":4404,"秊":4405,"秋":4406,"种":4407,"科":4408,"秒":4409,"秘":4410,"秞":4411,"租":4412,"秥":4413,"秦":4414,"秧":4415,"秩":4416,"秫":4417,"秬":4418,"积":4419,"称":4420,"移":4421,"稀":4422,"稅":4423,"稇":4424,"程":4425,"稔":4426,"稗":4427,"稙":4428,"稚":4429,"稛":4430,"稜":4431,"稟":4432,"稠":4433,"稧":4434,"種":4435,"稱":4436,"稶":4437,"稷":4438,"稹":4439,"稻":4440,"稼":4441,"稽":4442,"稿":4443,"穀":4444,"穄":4445,"穆":4446,"穉":4447,"穌":4448,"積":4449,"穎":4450,"穖":4451,"穗":4452,"穡":4453,"穢":4454,"穩":4455,"穫":4456,"穰":4457,"穴":4458,"究":4459,"穹":4460,"空":4461,"穿":4462,"突":4463,"窄":4464,"窆":4465,"窈":4466,"窒":4467,"窓":4468,"窕":4469,"窝":4470,"窟":4471,"窠":4472,"窩":4473,"窪":4474,"窬":4475,"窮":4476,"窯":4477,"窰":4478,"窺":4479,"窻":4480,"窼":4481,"窿":4482,"竅":4483,"竇":4484,"竈":4485,"竊":4486,"立":4487,"竑":4488,"站":4489,"竝":4490,"竟":4491,"章":4492,"竣":4493,"童":4494,"竦":4495,"竩":4496,"竪":4497,"竭":4498,"端":4499,"競":4500,"竹":4501,"竺":4502,"竽":4503,"竿":4504,"笈":4505,"笋":4506,"笏":4507,"笑":4508,"笒":4509,"笔":4510,"笙":4511,"笛":4512,"笞":4513,"笠":4514,"笥":4515,"符":4516,"第":4517,"笳":4518,"笼":4519,"筆":4520,"等":4521,"筋":4522,"筌":4523,"筍":4524,"筏":4525,"筐":4526,"筑":4527,"筒":4528,"筓":4529,"答":4530,"策":4531,"筠":4532,"筦":4533,"筩":4534,"筬":4535,"筭":4536,"筮":4537,"筯":4538,"筱":4539,"筵":4540,"筽":4541,"箇":4542,"箋":4543,"箏":4544,"箒":4545,"箔":4546,"箕":4547,"算":4548,"箚":4549,"箜":4550,"箠":4551,"管":4552,"箩":4553,"箫":4554,"箭":4555,"箱":4556,"箴":4557,"箸":4558,"節":4559,"篁":4560,"範":4561,"篆":4562,"篇":4563,"篈":4564,"築":4565,"篋":4566,"篌":4567,"篏":4568,"篚":4569,"篤":4570,"篥":4571,"篦":4572,"篩":4573,"篪":4574,"篷":4575,"簀":4576,"簇":4577,"簍":4578,"簑":4579,"簒":4580,"簞":4581,"簟":4582,"簠":4583,"簡":4584,"簧":4585,"簪":4586,"簫":4587,"簷":4588,"簽":4589,"簾":4590,"簿":4591,"籃":4592,"籌":4593,"籍":4594,"籐":4595,"籒":4596,"籙":4597,"籠":4598,"籤":4599,"籥":4600,"籧":4601,"籩":4602,"籬":4603,"籲":4604,"米":4605,"粉":4606,"粑":4607,"粒":4608,"粗":4609,"粘":4610,"粟":4611,"粢":4612,"粤":4613,"粥":4614,"粧":4615,"粪":4616,"粮":4617,"粱":4618,"粲":4619,"粳":4620,"粹":4621,"粽":4622,"精":4623,"糅":4624,"糊":4625,"糌":4626,"糖":4627,"糙":4628,"糜":4629,"糝":4630,"糞":4631,"糟":4632,"糠":4633,"糧":4634,"糯":4635,"糲":4636,"糴":4637,"糶":4638,"糸":4639,"系":4640,"糾":4641,"紀":4642,"紂":4643,"約":4644,"紅":4645,"紆":4646,"紇":4647,"紈":4648,"紉":4649,"紋":4650,"納":4651,"紐":4652,"紓":4653,"純":4654,"紕":4655,"紗":4656,"紘":4657,"紙":4658,"級":4659,"紛":4660,"紞":4661,"素":4662,"紡":4663,"索":4664,"紫":4665,"紬":4666,"累":4667,"細":4668,"紱":4669,"紳":4670,"紵":4671,"紸":4672,"紹":4673,"紺":4674,"絁":4675,"終":4676,"絃":4677,"組":4678,"絅":4679,"絆":4680,"経":4681,"結":4682,"絖":4683,"絛":4684,"絜":4685,"絞":4686,"絡":4687,"絢":4688,"給":4689,"絨":4690,"絮":4691,"絰":4692,"統":4693,"絲":4694,"絳":4695,"絵":4696,"絶":4697,"絹":4698,"絿":4699,"綃":4700,"綈":4701,"綊":4702,"綎":4703,"綏":4704,"經":4705,"綖":4706,"綜":4707,"綝":4708,"綠":4709,"綢":4710,"綦":4711,"綧":4712,"綬":4713,"維":4714,"綮":4715,"綱":4716,"網":4717,"綴":4718,"綵":4719,"綸":4720,"綺":4721,"綻":4722,"綽":4723,"綾":4724,"綿":4725,"緅":4726,"緇":4727,"緊":4728,"緋":4729,"緑":4730,"緖":4731,"緘":4732,"線":4733,"緝":4734,"緞":4735,"締":4736,"緡":4737,"緣":4738,"緦":4739,"編":4740,"緩":4741,"緬":4742,"緯":4743,"練":4744,"緺":4745,"緻":4746,"縄":4747,"縇":4748,"縈":4749,"縉":4750,"縛":4751,"縝":4752,"縞":4753,"縡":4754,"縢":4755,"縣":4756,"縫":4757,"縮":4758,"縯":4759,"縱":4760,"縶":4761,"縻":4762,"總":4763,"績":4764,"繁":4765,"繅":4766,"繆":4767,"繇":4768,"繐":4769,"繒":4770,"織":4771,"繕":4772,"繖":4773,"繘":4774,"繙":4775,"繚":4776,"繞":4777,"繡":4778,"繩":4779,"繪":4780,"繫":4781,"繭":4782,"繮":4783,"繰":4784,"繹":4785,"繼":4786,"纁":4787,"纂":4788,"纈":4789,"纊":4790,"續":4791,"纏":4792,"纓":4793,"纕":4794,"纖":4795,"纘":4796,"纛":4797,"纜":4798,"红":4799,"纥":4800,"纪":4801,"纱":4802,"纳":4803,"纸":4804,"纹":4805,"线":4806,"组":4807,"细":4808,"织":4809,"经":4810,"绒":4811,"绕":4812,"绝":4813,"统":4814,"绣":4815,"绿":4816,"缅":4817,"缐":4818,"缠":4819,"缶":4820,"缸":4821,"缺":4822,"罅":4823,"罇":4824,"罍":4825,"罔":4826,"罕":4827,"罗":4828,"罘":4829,"罛":4830,"罟":4831,"罪":4832,"置":4833,"罰":4834,"署":4835,"罳":4836,"罵":4837,"罷":4838,"罹":4839,"罽":4840,"罾":4841,"羃":4842,"羅":4843,"羆":4844,"羈":4845,"羊":4846,"羌":4847,"美":4848,"羑":4849,"羔":4850,"羖":4851,"羗":4852,"羘":4853,"羚":4854,"羞":4855,"羡":4856,"羣":4857,"群":4858,"羨":4859,"義":4860,"羯":4861,"羲":4862,"羹":4863,"羽":4864,"翁":4865,"翅":4866,"翊":4867,"翌":4868,"翎":4869,"習":4870,"翔":4871,"翕":4872,"翟":4873,"翠":4874,"翡":4875,"翣":4876,"翩":4877,"翫":4878,"翬":4879,"翮":4880,"翰":4881,"翹":4882,"翻":4883,"翼":4884,"翽":4885,"耀":4886,"老":4887,"考":4888,"耄":4889,"者":4890,"耆":4891,"耉":4892,"耋":4893,"而":4894,"耎":4895,"耐":4896,"耔":4897,"耕":4898,"耗":4899,"耘":4900,"耙":4901,"耨":4902,"耳":4903,"耶":4904,"耷":4905,"耻":4906,"耽":4907,"耿":4908,"聃":4909,"聆":4910,"聊":4911,"聖":4912,"聘":4913,"聚":4914,"聞":4915,"聪":4916,"聯":4917,"聰":4918,"聲":4919,"聳":4920,"聶":4921,"職":4922,"聽":4923,"聾":4924,"肃":4925,"肄":4926,"肅":4927,"肆":4928,"肇":4929,"肉":4930,"肋":4931,"肌":4932,"肓":4933,"肖":4934,"肘":4935,"肚":4936,"肛":4937,"肝":4938,"股":4939,"肢":4940,"肥":4941,"肩":4942,"肪":4943,"肭":4944,"肯":4945,"肱":4946,"育":4947,"肴":4948,"肸":4949,"肹":4950,"肺":4951,"胃":4952,"胄":4953,"胊":4954,"背":4955,"胎":4956,"胖":4957,"胗":4958,"胚":4959,"胞":4960,"胡":4961,"胤":4962,"胥":4963,"胱":4964,"胴":4965,"胸":4966,"能":4967,"脂":4968,"脅":4969,"脆":4970,"脇":4971,"脈":4972,"脉":4973,"脊":4974,"脘":4975,"脚":4976,"脛":4977,"脣":4978,"脩":4979,"脫":4980,"脯":4981,"脸":4982,"脹":4983,"脾":4984,"腆":4985,"腊":4986,"腋":4987,"腎":4988,"腐":4989,"腑":4990,"腔":4991,"腕":4992,"腥":4993,"腦":4994,"腫":4995,"腰":4996,"腱":4997,"腸":4998,"腹":4999,"腺":5000,"腾":5001,"腿":5002,"膀":5003,"膂":5004,"膃":5005,"膈":5006,"膏":5007,"膚":5008,"膜":5009,"膝":5010,"膠":5011,"膣":5012,"膨":5013,"膩":5014,"膳":5015,"膵":5016,"膺":5017,"膽":5018,"膾":5019,"膿":5020,"臀":5021,"臂":5022,"臆":5023,"臍":5024,"臗":5025,"臘":5026,"臙":5027,"臚":5028,"臟":5029,"臠":5030,"臣":5031,"臥":5032,"臧":5033,"臨":5034,"自":5035,"臭":5036,"至":5037,"致":5038,"臺":5039,"臻":5040,"臼":5041,"臾":5042,"舂":5043,"舃":5044,"舅":5045,"與":5046,"興":5047,"舊":5048,"舋":5049,"舌":5050,"舍":5051,"舐":5052,"舒":5053,"舔":5054,"舖":5055,"舘":5056,"舜":5057,"舞":5058,"舟":5059,"航":5060,"般":5061,"舵":5062,"舶":5063,"舷":5064,"船":5065,"艅":5066,"艇":5067,"艎":5068,"艙":5069,"艤":5070,"艦":5071,"艮":5072,"良":5073,"艱":5074,"色":5075,"艶":5076,"艸":5077,"艹":5078,"艾":5079,"节":5080,"芍":5081,"芐":5082,"芑":5083,"芒":5084,"芙":5085,"芚":5086,"芝":5087,"芥":5088,"芦":5089,"芩":5090,"芪":5091,"芬":5092,"芭":5093,"芮":5094,"芯":5095,"花":5096,"芳":5097,"芴":5098,"芷":5099,"芸":5100,"芹":5101,"芻":5102,"芽":5103,"芾":5104,"苏":5105,"苑":5106,"苓":5107,"苔":5108,"苕":5109,"苗":5110,"苛":5111,"苜":5112,"苞":5113,"苟":5114,"苡":5115,"苣":5116,"若":5117,"苦":5118,"苧":5119,"苯":5120,"英":5121,"苴":5122,"苹":5123,"苼":5124,"苽":5125,"苾":5126,"茁":5127,"茂":5128,"范":5129,"茄":5130,"茅":5131,"茆":5132,"茗":5133,"茝":5134,"茨":5135,"茫":5136,"茯":5137,"茱":5138,"茶":5139,"茸":5140,"茻":5141,"荀":5142,"荃":5143,"荇":5144,"草":5145,"荊":5146,"荏":5147,"荑":5148,"荒":5149,"荔":5150,"荞":5151,"荡":5152,"荤":5153,"荳":5154,"荷":5155,"荻":5156,"荼":5157,"莅":5158,"莆":5159,"莊":5160,"莎":5161,"莒":5162,"莖":5163,"莘":5164,"莞":5165,"莠":5166,"莢":5167,"莪":5168,"莫":5169,"莱":5170,"莵":5171,"莽":5172,"菁":5173,"菅":5174,"菊":5175,"菌":5176,"菑":5177,"菓":5178,"菖":5179,"菜":5180,"菟":5181,"菡":5182,"菩":5183,"華":5184,"菰":5185,"菱":5186,"菴":5187,"菸":5188,"菹":5189,"菻":5190,"菽":5191,"萃":5192,"萄":5193,"萇":5194,"萊":5195,"萌":5196,"萍":5197,"萎":5198,"营":5199,"萨":5200,"萩":5201,"萬":5202,"萱":5203,"萵":5204,"萸":5205,"萺":5206,"萼":5207,"落":5208,"葆":5209,"葈":5210,"葉":5211,"葎":5212,"著":5213,"葛":5214,"葡":5215,"董":5216,"葦":5217,"葫":5218,"葬":5219,"葭":5220,"葱":5221,"葳":5222,"葵":5223,"葺":5224,"蒂":5225,"蒐":5226,"蒔":5227,"蒕":5228,"蒙":5229,"蒜":5230,"蒭":5231,"蒯":5232,"蒲":5233,"蒴":5234,"蒸":5235,"蒺":5236,"蒼":5237,"蓀":5238,"蓂":5239,"蓄":5240,"蓆":5241,"蓉":5242,"蓋":5243,"蓍":5244,"蓐":5245,"蓑":5246,"蓝":5247,"蓨":5248,"蓬":5249,"蓭":5250,"蓮":5251,"蓴":5252,"蓼":5253,"蓾":5254,"蓿":5255,"蔑":5256,"蔓":5257,"蔕":5258,"蔘":5259,"蔚":5260,"蔡":5261,"蔣":5262,"蔬":5263,"蔭":5264,"蔵":5265,"蔽":5266,"蔿":5267,"蕃":5268,"蕆":5269,"蕉":5270,"蕙":5271,"蕤":5272,"蕨":5273,"蕩":5274,"蕪":5275,"蕫":5276,"蕭":5277,"蕾":5278,"薀":5279,"薄":5280,"薇":5281,"薉":5282,"薊":5283,"薑":5284,"薔":5285,"薛":5286,"薤":5287,"薦":5288,"薨":5289,"薩":5290,"薪":5291,"薯":5292,"薰":5293,"薱":5294,"薹":5295,"薺":5296,"藁":5297,"藉":5298,"藍":5299,"藎":5300,"藏":5301,"藕":5302,"藜":5303,"藝":5304,"藤":5305,"藥":5306,"藩":5307,"藪":5308,"藫":5309,"藷":5310,"藹":5311,"藺":5312,"藻":5313,"藾":5314,"藿":5315,"蘂":5316,"蘄":5317,"蘅":5318,"蘆":5319,"蘇":5320,"蘊":5321,"蘋":5322,"蘖":5323,"蘗":5324,"蘢":5325,"蘧":5326,"蘫":5327,"蘭":5328,"蘷":5329,"蘿":5330,"虁":5331,"虍":5332,"虎":5333,"虐":5334,"虔":5335,"處":5336,"虗":5337,"虛":5338,"虜":5339,"虞":5340,"號":5341,"虡":5342,"虢":5343,"虫":5344,"虬":5345,"虹":5346,"蚊":5347,"蚌":5348,"蚕":5349,"蚡":5350,"蚤":5351,"蚨":5352,"蚩":5353,"蚪":5354,"蚳":5355,"蛇":5356,"蛉":5357,"蛋":5358,"蛙":5359,"蛛":5360,"蛟":5361,"蛤":5362,"蛮":5363,"蛹":5364,"蛾":5365,"蜀":5366,"蜂":5367,"蜃":5368,"蜈":5369,"蜉":5370,"蜋":5371,"蜍":5372,"蜓":5373,"蜘":5374,"蜜":5375,"蜡":5376,"蜺":5377,"蜻":5378,"蜿":5379,"蝀":5380,"蝃":5381,"蝌":5382,"蝕":5383,"蝘":5384,"蝟":5385,"蝣":5386,"蝦":5387,"蝭":5388,"蝰":5389,"蝴":5390,"蝶":5391,"蝸":5392,"融":5393,"螢":5394,"螭":5395,"螺":5396,"螻":5397,"蟀":5398,"蟄":5399,"蟆":5400,"蟠":5401,"蟬":5402,"蟲":5403,"蟹":5404,"蟻":5405,"蟾":5406,"蠅":5407,"蠟":5408,"蠡":5409,"蠣":5410,"蠲":5411,"蠶":5412,"蠹":5413,"蠻":5414,"血":5415,"衆":5416,"行":5417,"衍":5418,"衎":5419,"術":5420,"衕":5421,"街":5422,"衙":5423,"衛":5424,"衝":5425,"衡":5426,"衢":5427,"衣":5428,"表":5429,"衫":5430,"衮":5431,"衰":5432,"衲":5433,"衷":5434,"衾":5435,"衿":5436,"袁":5437,"袂":5438,"袈":5439,"袋":5440,"袍":5441,"袒":5442,"袖":5443,"袗":5444,"袙":5445,"袜":5446,"袞":5447,"袤":5448,"被":5449,"袭":5450,"袱":5451,"袴":5452,"袵":5453,"袷":5454,"袿":5455,"裀":5456,"裁":5457,"裂":5458,"裊":5459,"裌":5460,"裏":5461,"裒":5462,"裔":5463,"裕":5464,"裘":5465,"裙":5466,"裛":5467,"補":5468,"裝":5469,"裟":5470,"裡":5471,"裨":5472,"裱":5473,"裳":5474,"裴":5475,"裵":5476,"裶":5477,"裸":5478,"裹":5479,"製":5480,"褆":5481,"複":5482,"褈":5483,"褐":5484,"褒":5485,"褓":5486,"褔":5487,"褘":5488,"褙":5489,"褚":5490,"褥":5491,"褧":5492,"褶":5493,"褻":5494,"襁":5495,"襄":5496,"襈":5497,"襍":5498,"襖":5499,"襞":5500,"襟":5501,"襡":5502,"襢":5503,"襦":5504,"襪":5505,"襯":5506,"襲":5507,"襴":5508,"西":5509,"要":5510,"覃":5511,"覆":5512,"覇":5513,"覈":5514,"覊":5515,"見":5516,"規":5517,"覓":5518,"視":5519,"覘":5520,"覡":5521,"親":5522,"覬":5523,"覯":5524,"覲":5525,"覺":5526,"覽":5527,"觀":5528,"觉":5529,"角":5530,"觚":5531,"觜":5532,"觝":5533,"解":5534,"觭":5535,"觱":5536,"觴":5537,"觶":5538,"觸":5539,"言":5540,"訂":5541,"訃":5542,"計":5543,"訊":5544,"討":5545,"訒":5546,"訓":5547,"訔":5548,"訕":5549,"訖":5550,"託":5551,"記":5552,"訛":5553,"訝":5554,"訟":5555,"訢":5556,"訣":5557,"訥":5558,"訪":5559,"設":5560,"許":5561,"訴":5562,"訶":5563,"診":5564,"註":5565,"証":5566,"詁":5567,"詆":5568,"詈":5569,"詐":5570,"詔":5571,"評":5572,"詗":5573,"詘":5574,"詞":5575,"詠":5576,"詡":5577,"詢":5578,"詣":5579,"試":5580,"詧":5581,"詩":5582,"詫":5583,"詭":5584,"詮":5585,"詰":5586,"話":5587,"該":5588,"詳":5589,"詵":5590,"詹":5591,"誄":5592,"誅":5593,"誇":5594,"誌":5595,"認":5596,"誓":5597,"誕":5598,"誘":5599,"語":5600,"誠":5601,"誡":5602,"誣":5603,"誤":5604,"誥":5605,"誦":5606,"誨":5607,"說":5608,"誰":5609,"課":5610,"誶":5611,"誹":5612,"誼":5613,"誾":5614,"調":5615,"諂":5616,"諄":5617,"談":5618,"請":5619,"諍":5620,"諏":5621,"諐":5622,"諒":5623,"論":5624,"諜":5625,"諡":5626,"諦":5627,"諧":5628,"諫":5629,"諭":5630,"諮":5631,"諰":5632,"諱":5633,"諳":5634,"諴":5635,"諶":5636,"諷":5637,"諸":5638,"諺":5639,"諼":5640,"諾":5641,"諿":5642,"謀":5643,"謁":5644,"謂":5645,"謄":5646,"謇":5647,"謏":5648,"謐":5649,"謔":5650,"謗":5651,"謙":5652,"講":5653,"謝":5654,"謠":5655,"謨":5656,"謫":5657,"謬":5658,"謳":5659,"謹":5660,"謾":5661,"證":5662,"譍":5663,"譎":5664,"譏":5665,"譓":5666,"識":5667,"譙":5668,"譚":5669,"譜":5670,"警":5671,"譬":5672,"譯":5673,"議":5674,"譴":5675,"護":5676,"譽":5677,"讀":5678,"變":5679,"讌":5680,"讎":5681,"讐":5682,"讒":5683,"讓":5684,"讖":5685,"讚":5686,"讜":5687,"讞":5688,"训":5689,"记":5690,"词":5691,"该":5692,"语":5693,"说":5694,"诵":5695,"诸":5696,"诺":5697,"调":5698,"谈":5699,"谙":5700,"谢":5701,"谷":5702,"谽":5703,"谿":5704,"豁":5705,"豆":5706,"豈":5707,"豉":5708,"豊":5709,"豎":5710,"豐":5711,"豕":5712,"豗":5713,"豚":5714,"象":5715,"豨":5716,"豪":5717,"豫":5718,"豳":5719,"豹":5720,"豺":5721,"貂":5722,"貉":5723,"貊":5724,"貌":5725,"貝":5726,"貞":5727,"負":5728,"財":5729,"貢":5730,"貧":5731,"貨":5732,"販":5733,"貪":5734,"貫":5735,"責":5736,"貯":5737,"貰":5738,"貲":5739,"貳":5740,"貴":5741,"貶":5742,"買":5743,"貸":5744,"費":5745,"貼":5746,"貽":5747,"貿":5748,"賀":5749,"賁":5750,"賂":5751,"賃":5752,"賄":5753,"賆":5754,"資":5755,"賈":5756,"賊":5757,"賑":5758,"賓":5759,"賚":5760,"賜":5761,"賞":5762,"賠":5763,"賡":5764,"賢":5765,"賣":5766,"賤":5767,"賦":5768,"質":5769,"賭":5770,"賴":5771,"賷":5772,"賻":5773,"賽":5774,"賾":5775,"贄":5776,"贅":5777,"贇":5778,"贈":5779,"贊":5780,"贍":5781,"贏":5782,"贐":5783,"贓":5784,"贖":5785,"贛":5786,"贡":5787,"贵":5788,"贾":5789,"赞":5790,"赣":5791,"赤":5792,"赦":5793,"赫":5794,"赭":5795,"走":5796,"赳":5797,"赴":5798,"赶":5799,"起":5800,"超":5801,"越":5802,"趎":5803,"趙":5804,"趣":5805,"趨":5806,"趪":5807,"趲":5808,"足":5809,"趺":5810,"趾":5811,"跋":5812,"跌":5813,"跏":5814,"跖":5815,"跗":5816,"跛":5817,"距":5818,"跟":5819,"跡":5820,"跤":5821,"跨":5822,"跪":5823,"路":5824,"跳":5825,"踊":5826,"踏":5827,"踐":5828,"踝":5829,"踞":5830,"踧":5831,"踰":5832,"踵":5833,"踶":5834,"蹂":5835,"蹄":5836,"蹇":5837,"蹈":5838,"蹊":5839,"蹕":5840,"蹛":5841,"蹟":5842,"蹬":5843,"蹲":5844,"蹴":5845,"躁":5846,"躃":5847,"躋":5848,"躍":5849,"躒":5850,"躔":5851,"躪":5852,"身":5853,"躬":5854,"軀":5855,"車":5856,"軌":5857,"軍":5858,"軎":5859,"軒":5860,"軛":5861,"軟":5862,"軫":5863,"軸":5864,"軺":5865,"軻":5866,"軼":5867,"軾":5868,"較":5869,"輅":5870,"輈":5871,"載":5872,"輋":5873,"輒":5874,"輓":5875,"輔":5876,"輕":5877,"輗":5878,"輛":5879,"輜":5880,"輝":5881,"輞":5882,"輟":5883,"輦":5884,"輩":5885,"輪":5886,"輬":5887,"輭":5888,"輯":5889,"輳":5890,"輸":5891,"輻":5892,"輾":5893,"輿":5894,"轀":5895,"轄":5896,"轅":5897,"轆":5898,"轉":5899,"轍":5900,"轎":5901,"轙":5902,"轜":5903,"轝":5904,"轟":5905,"轡":5906,"轤":5907,"车":5908,"转":5909,"轮":5910,"轻":5911,"辉":5912,"辛":5913,"辜":5914,"辟":5915,"辦":5916,"辨":5917,"辭":5918,"辯":5919,"辰":5920,"辱":5921,"農":5922,"辶":5923,"辺":5924,"辽":5925,"达":5926,"迁":5927,"迂":5928,"迃":5929,"迅":5930,"过":5931,"迊":5932,"迎":5933,"近":5934,"迓":5935,"返":5936,"远":5937,"连":5938,"迦":5939,"迨":5940,"迪":5941,"迫":5942,"迭":5943,"述":5944,"迴":5945,"迷":5946,"迹":5947,"迺":5948,"追":5949,"退":5950,"送":5951,"适":5952,"逃":5953,"逄":5954,"逆":5955,"逈":5956,"选":5957,"逋":5958,"逍":5959,"透":5960,"逐":5961,"逑":5962,"途":5963,"逕":5964,"逗":5965,"這":5966,"通":5967,"逝":5968,"逞":5969,"速":5970,"造":5971,"逡":5972,"逢":5973,"連":5974,"逮":5975,"逯":5976,"週":5977,"進":5978,"逵":5979,"逸":5980,"逼":5981,"逾":5982,"遁":5983,"遂":5984,"遇":5985,"遊":5986,"運":5987,"遍":5988,"過":5989,"遏":5990,"遐":5991,"遒":5992,"道":5993,"達":5994,"違":5995,"遙":5996,"遜":5997,"遞":5998,"遠":5999,"遡":6000,"遣":6001,"遥":6002,"適":6003,"遮":6004,"遯":6005,"遲":6006,"遴":6007,"遵":6008,"遷":6009,"選":6010,"遺":6011,"遼":6012,"避":6013,"邀":6014,"邁":6015,"邃":6016,"還":6017,"邇":6018,"邈":6019,"邊":6020,"邏":6021,"邑":6022,"邕":6023,"邙":6024,"邠":6025,"邢":6026,"那":6027,"邦":6028,"邨":6029,"邪":6030,"邯":6031,"邰":6032,"邱":6033,"邳":6034,"邴":6035,"邵":6036,"邶":6037,"邸":6038,"邽":6039,"郁":6040,"郃":6041,"郊":6042,"郎":6043,"郞":6044,"郡":6045,"郢":6046,"郤":6047,"部":6048,"郭":6049,"郯":6050,"郵":6051,"都":6052,"郾":6053,"郿":6054,"鄂":6055,"鄅":6056,"鄒":6057,"鄕":6058,"鄘":6059,"鄙":6060,"鄢":6061,"鄣":6062,"鄧":6063,"鄭":6064,"鄯":6065,"鄰":6066,"鄲":6067,"鄴":6068,"酇":6069,"酈":6070,"酉":6071,"酊":6072,"酋":6073,"酌":6074,"配":6075,"酎":6076,"酒":6077,"酢":6078,"酣":6079,"酤":6080,"酥":6081,"酩":6082,"酪":6083,"酬":6084,"酵":6085,"酷":6086,"酸":6087,"酺":6088,"酿":6089,"醇":6090,"醉":6091,"醋":6092,"醍":6093,"醐":6094,"醒":6095,"醓":6096,"醜":6097,"醞":6098,"醢":6099,"醨":6100,"醪":6101,"醫":6102,"醬":6103,"醮":6104,"醯":6105,"醱":6106,"醴":6107,"醵":6108,"釀":6109,"采":6110,"釉":6111,"釋":6112,"里":6113,"重":6114,"野":6115,"量":6116,"釐":6117,"金":6118,"釗":6119,"釘":6120,"釜":6121,"針":6122,"釣":6123,"釧":6124,"釬":6125,"釵":6126,"鈀":6127,"鈂":6128,"鈍":6129,"鈐":6130,"鈒":6131,"鈔":6132,"鈕":6133,"鈗":6134,"鈞":6135,"鈴":6136,"鈷":6137,"鈸":6138,"鈺":6139,"鈿":6140,"鉀":6141,"鉅":6142,"鉇":6143,"鉉":6144,"鉛":6145,"鉞":6146,"鉢":6147,"鉤":6148,"鉦":6149,"鉶":6150,"鉸":6151,"鉼":6152,"鉾":6153,"銀":6154,"銃":6155,"銅":6156,"銎":6157,"銑":6158,"銓":6159,"銕":6160,"銖":6161,"銘":6162,"銙":6163,"銜":6164,"銳":6165,"銶":6166,"銷":6167,"鋈":6168,"鋌":6169,"鋒":6170,"鋟":6171,"鋤":6172,"鋧":6173,"鋪":6174,"鋸":6175,"鋻":6176,"鋼":6177,"鋽":6178,"錄":6179,"錐":6180,"錘":6181,"錚":6182,"錞":6183,"錟":6184,"錡":6185,"錢":6186,"錣":6187,"錦":6188,"錨":6189,"錫":6190,"錮":6191,"錯":6192,"鍊":6193,"鍋":6194,"鍍":6195,"鍑":6196,"鍔":6197,"鍛":6198,"鍤":6199,"鍪":6200,"鍬":6201,"鍮":6202,"鍴":6203,"鍵":6204,"鍼":6205,"鍾":6206,"鎌":6207,"鎔":6208,"鎖":6209,"鎚":6210,"鎡":6211,"鎣":6212,"鎧":6213,"鎬":6214,"鎭":6215,"鎰":6216,"鏃":6217,"鏐":6218,"鏑":6219,"鏖":6220,"鏗":6221,"鏘":6222,"鏛":6223,"鏞":6224,"鏟":6225,"鏡":6226,"鏤":6227,"鏵":6228,"鏽":6229,"鐃":6230,"鐎":6231,"鐘":6232,"鐙":6233,"鐥":6234,"鐵":6235,"鐶":6236,"鐸":6237,"鐺":6238,"鑄":6239,"鑊":6240,"鑑":6241,"鑒":6242,"鑛":6243,"鑝":6244,"鑞":6245,"鑠":6246,"鑡":6247,"鑢":6248,"鑪":6249,"鑰":6250,"鑴":6251,"鑼":6252,"鑽":6253,"鑾":6254,"鑿":6255,"针":6256,"钙":6257,"钱":6258,"钵":6259,"铁":6260,"铃":6261,"铓":6262,"铜":6263,"铣":6264,"银":6265,"铸":6266,"锡":6267,"锣":6268,"長":6269,"长":6270,"門":6271,"閃":6272,"閉":6273,"開":6274,"閏":6275,"閑":6276,"閒":6277,"間":6278,"閔":6279,"閘":6280,"閠":6281,"関":6282,"閣":6283,"閤":6284,"閥":6285,"閦":6286,"閨":6287,"閩":6288,"閫":6289,"閬":6290,"閭":6291,"閱":6292,"閹":6293,"閻":6294,"閼":6295,"閽":6296,"闇":6297,"闊":6298,"闋":6299,"闌":6300,"闍":6301,"闐":6302,"闒":6303,"闔":6304,"闕":6305,"闚":6306,"關":6307,"闡":6308,"闢":6309,"闥":6310,"门":6311,"闭":6312,"间":6313,"闽":6314,"阗":6315,"阜":6316,"阡":6317,"阨":6318,"阪":6319,"阮":6320,"防":6321,"阳":6322,"阴":6323,"阻":6324,"阿":6325,"陀":6326,"陁":6327,"陂":6328,"附":6329,"陇":6330,"陋":6331,"降":6332,"限":6333,"陕":6334,"陛":6335,"陜":6336,"陝":6337,"陞":6338,"陟":6339,"院":6340,"陣":6341,"除":6342,"陪":6343,"陰":6344,"陳":6345,"陵":6346,"陶":6347,"陷":6348,"陸":6349,"陽":6350,"隄":6351,"隅":6352,"隆":6353,"隈":6354,"隊":6355,"隋":6356,"隍":6357,"階":6358,"隔":6359,"隕":6360,"隘":6361,"隙":6362,"際":6363,"障":6364,"隣":6365,"隧":6366,"隨":6367,"險":6368,"隰":6369,"隱":6370,"隴":6371,"隷":6372,"隸":6373,"隻":6374,"雀":6375,"雁":6376,"雄":6377,"雅":6378,"集":6379,"雇":6380,"雉":6381,"雋":6382,"雌":6383,"雍":6384,"雎":6385,"雒":6386,"雕":6387,"雖":6388,"雙":6389,"雛":6390,"雜":6391,"雞":6392,"離":6393,"難":6394,"雨":6395,"雩":6396,"雪":6397,"雯":6398,"雰":6399,"雲":6400,"零":6401,"雷":6402,"雹":6403,"電":6404,"需":6405,"霂":6406,"霄":6407,"霅":6408,"霆":6409,"震":6410,"霊":6411,"霍":6412,"霑":6413,"霓":6414,"霔":6415,"霖":6416,"霙":6417,"霜":6418,"霞":6419,"霧":6420,"霰":6421,"露":6422,"霸":6423,"霹":6424,"霽":6425,"靂":6426,"靄":6427,"靈":6428,"靑":6429,"青":6430,"靖":6431,"靛":6432,"靜":6433,"非":6434,"靡":6435,"面":6436,"革":6437,"靭":6438,"靴":6439,"靷":6440,"靺":6441,"靼":6442,"鞅":6443,"鞋":6444,"鞍":6445,"鞏":6446,"鞑":6447,"鞒":6448,"鞓":6449,"鞘":6450,"鞜":6451,"鞞":6452,"鞠":6453,"鞦":6454,"鞨":6455,"鞫":6456,"鞭":6457,"鞱":6458,"鞸":6459,"鞿":6460,"韁":6461,"韃":6462,"韆":6463,"韋":6464,"韓":6465,"韜":6466,"韞":6467,"韠":6468,"韦":6469,"韩":6470,"音":6471,"韵":6472,"韶":6473,"韺":6474,"韻":6475,"響":6476,"頁":6477,"頂":6478,"頃":6479,"項":6480,"順":6481,"須":6482,"頉":6483,"頊":6484,"頌":6485,"頍":6486,"頎":6487,"預":6488,"頑":6489,"頒":6490,"頓":6491,"頔":6492,"頗":6493,"領":6494,"頙":6495,"頡":6496,"頣":6497,"頤":6498,"頫":6499,"頭":6500,"頰":6501,"頲":6502,"頴":6503,"頵":6504,"頷":6505,"頸":6506,"頹":6507,"頻":6508,"頼":6509,"顆":6510,"顉":6511,"題":6512,"額":6513,"顎":6514,"顒":6515,"顔":6516,"顗":6517,"願":6518,"顚":6519,"類":6520,"顥":6521,"顧":6522,"顫":6523,"顯":6524,"顰":6525,"页":6526,"顶":6527,"顾":6528,"颐":6529,"题":6530,"風":6531,"飄":6532,"飇":6533,"飘":6534,"飛":6535,"飜":6536,"食":6537,"飡":6538,"飢":6539,"飧":6540,"飫":6541,"飭":6542,"飮":6543,"飯":6544,"飴":6545,"飼":6546,"飽":6547,"飾":6548,"餉":6549,"養":6550,"餌":6551,"餐":6552,"餒":6553,"餓":6554,"餕":6555,"餘":6556,"餞":6557,"餠":6558,"館":6559,"餮":6560,"餳":6561,"餻":6562,"餽":6563,"饅":6564,"饋":6565,"饌":6566,"饍":6567,"饑":6568,"饒":6569,"饔":6570,"饕":6571,"饗":6572,"饟":6573,"饮":6574,"饼":6575,"馒":6576,"首":6577,"香":6578,"馣":6579,"馥":6580,"馦":6581,"馨":6582,"馩":6583,"馪":6584,"馬":6585,"馭":6586,"馮":6587,"馱":6588,"馳":6589,"馴":6590,"馹":6591,"駁":6592,"駄":6593,"駉":6594,"駐":6595,"駒":6596,"駕":6597,"駘":6598,"駙":6599,"駝":6600,"駟":6601,"駭":6602,"駰":6603,"駱":6604,"駿":6605,"騃":6606,"騈":6607,"騎":6608,"騏":6609,"騫":6610,"騭":6611,"騰":6612,"騷":6613,"驃":6614,"驄":6615,"驅":6616,"驌":6617,"驍":6618,"驕":6619,"驗":6620,"驚":6621,"驛":6622,"驟":6623,"驢":6624,"驤":6625,"驥":6626,"驪":6627,"马":6628,"驼":6629,"骆":6630,"骨":6631,"骰":6632,"骸":6633,"骻":6634,"髀":6635,"髏":6636,"髓":6637,"體":6638,"高":6639,"髢":6640,"髥":6641,"髦":6642,"髪":6643,"髫":6644,"髮":6645,"髻":6646,"鬐":6647,"鬘":6648,"鬚":6649,"鬢":6650,"鬧":6651,"鬪":6652,"鬱":6653,"鬲":6654,"鬳":6655,"鬻":6656,"鬼":6657,"魁":6658,"魂":6659,"魃":6660,"魄":6661,"魅":6662,"魍":6663,"魎":6664,"魏":6665,"魑":6666,"魔":6667,"魘":6668,"魚":6669,"魯":6670,"鮎":6671,"鮑":6672,"鮒":6673,"鮓":6674,"鮚":6675,"鮟":6676,"鮨":6677,"鮭":6678,"鮮":6679,"鯀":6680,"鯉":6681,"鯡":6682,"鯤":6683,"鯨":6684,"鯷":6685,"鰈":6686,"鰌":6687,"鰍":6688,"鰓":6689,"鰥":6690,"鰭":6691,"鰲":6692,"鱇":6693,"鱗":6694,"鱼":6695,"鲁":6696,"鲜":6697,"鳥":6698,"鳧":6699,"鳩":6700,"鳲":6701,"鳳":6702,"鳴":6703,"鳶":6704,"鴈":6705,"鴉":6706,"鴛":6707,"鴝":6708,"鴟":6709,"鴣":6710,"鴦":6711,"鴨":6712,"鴻":6713,"鵂":6714,"鵄":6715,"鵑":6716,"鵒":6717,"鵝":6718,"鵞":6719,"鵠":6720,"鵡":6721,"鵬":6722,"鵲":6723,"鶉":6724,"鶊":6725,"鶩":6726,"鶯":6727,"鶴":6728,"鶻":6729,"鷂":6730,"鷄":6731,"鷓":6732,"鷗":6733,"鷙":6734,"鷦":6735,"鷰":6736,"鷲":6737,"鷳":6738,"鷸":6739,"鷹":6740,"鷺":6741,"鸇":6742,"鸚":6743,"鸝":6744,"鸞":6745,"鸟":6746,"鸶":6747,"鹂":6748,"鹘":6749,"鹭":6750,"鹵":6751,"鹹":6752,"鹽":6753,"鹿":6754,"麂":6755,"麈":6756,"麋":6757,"麒":6758,"麓":6759,"麗":6760,"麝":6761,"麟":6762,"麤":6763,"麥":6764,"麪":6765,"麴":6766,"麵":6767,"麻":6768,"麽":6769,"麾":6770,"麿":6771,"黃":6772,"黄":6773,"黈":6774,"黌":6775,"黍":6776,"黎":6777,"黏":6778,"黑":6779,"黔":6780,"默":6781,"黙":6782,"黛":6783,"黜":6784,"點":6785,"黠":6786,"黥":6787,"黨":6788,"黯":6789,"黲":6790,"黳":6791,"黻":6792,"黼":6793,"黿":6794,"鼂":6795,"鼄":6796,"鼅":6797,"鼈":6798,"鼎":6799,"鼐":6800,"鼓":6801,"鼠":6802,"鼩":6803,"鼱":6804,"鼻":6805,"齊":6806,"齋":6807,"齎":6808,"齐":6809,"齒":6810,"齡":6811,"齪":6812,"齷":6813,"齿":6814,"龍":6815,"龐":6816,"龔":6817,"龕":6818,"龙":6819,"龜":6820,"龥":6821,"ꜭ":6822,"Ꜿ":6823,"가":6824,"각":6825,"간":6826,"갇":6827,"갈":6828,"갉":6829,"감":6830,"갑":6831,"값":6832,"갓":6833,"갔":6834,"강":6835,"갖":6836,"갗":6837,"같":6838,"갚":6839,"갛":6840,"개":6841,"객":6842,"갠":6843,"갤":6844,"갬":6845,"갭":6846,"갯":6847,"갱":6848,"갸":6849,"갹":6850,"걀":6851,"걈":6852,"거":6853,"걱":6854,"건":6855,"걷":6856,"걸":6857,"검":6858,"겁":6859,"것":6860,"겄":6861,"겅":6862,"겉":6863,"겊":6864,"겋":6865,"게":6866,"겐":6867,"겔":6868,"겜":6869,"겝":6870,"겟":6871,"겠":6872,"겡":6873,"겨":6874,"격":6875,"겪":6876,"견":6877,"겯":6878,"결":6879,"겸":6880,"겹":6881,"겻":6882,"겼":6883,"경":6884,"곁":6885,"계":6886,"곌":6887,"곗":6888,"고":6889,"곡":6890,"곤":6891,"곧":6892,"골":6893,"곪":6894,"곬":6895,"곯":6896,"곰":6897,"곱":6898,"곳":6899,"공":6900,"곶":6901,"곷":6902,"과":6903,"곽":6904,"관":6905,"괄":6906,"괌":6907,"광":6908,"괘":6909,"괜":6910,"괭":6911,"괴":6912,"괵":6913,"괸":6914,"괼":6915,"굄":6916,"굉":6917,"교":6918,"구":6919,"국":6920,"군":6921,"굳":6922,"굴":6923,"굵":6924,"굶":6925,"굼":6926,"굽":6927,"굿":6928,"궁":6929,"궂":6930,"궈":6931,"권":6932,"궐":6933,"궜":6934,"궤":6935,"궨":6936,"궬":6937,"귀":6938,"귄":6939,"귈":6940,"귐":6941,"귓":6942,"귕":6943,"규":6944,"균":6945,"귤":6946,"그":6947,"극":6948,"근":6949,"귿":6950,"글":6951,"긁":6952,"금":6953,"급":6954,"긋":6955,"긍":6956,"긔":6957,"기":6958,"긱":6959,"긴":6960,"긷":6961,"길":6962,"김":6963,"깁":6964,"깃":6965,"깄":6966,"깅":6967,"깊":6968,"까":6969,"깍":6970,"깎":6971,"깐":6972,"깔":6973,"깜":6974,"깝":6975,"깡":6976,"깥":6977,"깨":6978,"깬":6979,"깰":6980,"깸":6981,"깻":6982,"깼":6983,"깽":6984,"꺅":6985,"꺼":6986,"꺽":6987,"꺾":6988,"껄":6989,"껌":6990,"껍":6991,"껏":6992,"껐":6993,"껑":6994,"께":6995,"껴":6996,"꼈":6997,"꼍":6998,"꼐":6999,"꼬":7000,"꼭":7001,"꼰":7002,"꼴":7003,"꼼":7004,"꼽":7005,"꼿":7006,"꽁":7007,"꽂":7008,"꽃":7009,"꽈":7010,"꽉":7011,"꽝":7012,"꽤":7013,"꽥":7014,"꽹":7015,"꾀":7016,"꾐":7017,"꾜":7018,"꾸":7019,"꾹":7020,"꾼":7021,"꿀":7022,"꿇":7023,"꿈":7024,"꿉":7025,"꿋":7026,"꿍":7027,"꿔":7028,"꿨":7029,"꿩":7030,"꿰":7031,"꿴":7032,"꿸":7033,"뀌":7034,"뀐":7035,"뀔":7036,"뀜":7037,"끄":7038,"끈":7039,"끊":7040,"끌":7041,"끓":7042,"끔":7043,"끕":7044,"끗":7045,"끙":7046,"끝":7047,"끼":7048,"끽":7049,"낀":7050,"낄":7051,"낌":7052,"낍":7053,"낑":7054,"나":7055,"낙":7056,"낚":7057,"난":7058,"낟":7059,"날":7060,"낡":7061,"남":7062,"납":7063,"낫":7064,"났":7065,"낭":7066,"낮":7067,"낯":7068,"낱":7069,"낳":7070,"내":7071,"낵":7072,"낸":7073,"낼":7074,"냄":7075,"냅":7076,"냇":7077,"냈":7078,"냉":7079,"냐":7080,"냑":7081,"냔":7082,"냘":7083,"냥":7084,"너":7085,"넉":7086,"넋":7087,"넌":7088,"널":7089,"넒":7090,"넓":7091,"넘":7092,"넙":7093,"넛":7094,"넜":7095,"넝":7096,"넣":7097,"네":7098,"넥":7099,"넨":7100,"넬":7101,"넴":7102,"넵":7103,"넷":7104,"넸":7105,"넹":7106,"녀":7107,"녁":7108,"년":7109,"녈":7110,"념":7111,"녑":7112,"녔":7113,"녕":7114,"녘":7115,"녜":7116,"녠":7117,"녯":7118,"노":7119,"녹":7120,"논":7121,"놀":7122,"놈":7123,"놉":7124,"놋":7125,"농":7126,"높":7127,"놓":7128,"놔":7129,"놨":7130,"뇌":7131,"뇟":7132,"뇡":7133,"뇨":7134,"뇩":7135,"뇬":7136,"뇰":7137,"뇽":7138,"누":7139,"눅":7140,"눈":7141,"눋":7142,"눌":7143,"눔":7144,"눕":7145,"눗":7146,"눙":7147,"눠":7148,"눴":7149,"뉘":7150,"뉜":7151,"뉠":7152,"뉨":7153,"뉩":7154,"뉴":7155,"뉵":7156,"뉼":7157,"늄":7158,"늉":7159,"느":7160,"늑":7161,"는":7162,"늘":7163,"늙":7164,"늠":7165,"능":7166,"늦":7167,"늪":7168,"늫":7169,"늬":7170,"늰":7171,"니":7172,"닉":7173,"닌":7174,"닐":7175,"닑":7176,"님":7177,"닙":7178,"닛":7179,"닝":7180,"닢":7181,"다":7182,"닥":7183,"닦":7184,"단":7185,"닫":7186,"달":7187,"닭":7188,"닮":7189,"닳":7190,"담":7191,"답":7192,"닷":7193,"당":7194,"닺":7195,"닻":7196,"닿":7197,"대":7198,"댁":7199,"댄":7200,"댈":7201,"댐":7202,"댑":7203,"댓":7204,"댔":7205,"댕":7206,"댜":7207,"더":7208,"덕":7209,"던":7210,"덜":7211,"덞":7212,"덟":7213,"덤":7214,"덥":7215,"덧":7216,"덩":7217,"덫":7218,"덮":7219,"데":7220,"덱":7221,"덴":7222,"델":7223,"뎀":7224,"뎁":7225,"뎃":7226,"뎅":7227,"뎌":7228,"뎍":7229,"뎐":7230,"뎠":7231,"뎡":7232,"뎨":7233,"뎬":7234,"도":7235,"독":7236,"돈":7237,"돋":7238,"돌":7239,"돐":7240,"돔":7241,"돕":7242,"돗":7243,"동":7244,"돛":7245,"돝":7246,"돠":7247,"돤":7248,"돼":7249,"됐":7250,"되":7251,"된":7252,"될":7253,"됨":7254,"됩":7255,"됭":7256,"됴":7257,"두":7258,"둑":7259,"둔":7260,"둘":7261,"둠":7262,"둡":7263,"둣":7264,"둥":7265,"둬":7266,"둴":7267,"뒀":7268,"뒈":7269,"뒤":7270,"뒥":7271,"뒨":7272,"뒬":7273,"뒷":7274,"뒹":7275,"듀":7276,"듄":7277,"듈":7278,"듐":7279,"듕":7280,"드":7281,"득":7282,"든":7283,"듣":7284,"들":7285,"듦":7286,"듬":7287,"듭":7288,"듯":7289,"등":7290,"듸":7291,"딋":7292,"디":7293,"딕":7294,"딘":7295,"딛":7296,"딜":7297,"딤":7298,"딥":7299,"딧":7300,"딩":7301,"딪":7302,"따":7303,"딱":7304,"딴":7305,"딸":7306,"땀":7307,"땃":7308,"땄":7309,"땅":7310,"땋":7311,"때":7312,"땍":7313,"땐":7314,"땔":7315,"땜":7316,"땠":7317,"땡":7318,"떄":7319,"떠":7320,"떡":7321,"떤":7322,"떨":7323,"떫":7324,"떳":7325,"떴":7326,"떵":7327,"떻":7328,"떼":7329,"떽":7330,"뗀":7331,"뗄":7332,"뗏":7333,"뗐":7334,"또":7335,"똑":7336,"똘":7337,"똥":7338,"똬":7339,"뙈":7340,"뙤":7341,"뚜":7342,"뚝":7343,"뚤":7344,"뚫":7345,"뚱":7346,"뚸":7347,"뛰":7348,"뛴":7349,"뛸":7350,"뜀":7351,"뜨":7352,"뜩":7353,"뜬":7354,"뜯":7355,"뜰":7356,"뜷":7357,"뜸":7358,"뜻":7359,"뜽":7360,"띄":7361,"띈":7362,"띌":7363,"띔":7364,"띕":7365,"띠":7366,"띤":7367,"띨":7368,"띰":7369,"띱":7370,"띳":7371,"라":7372,"락":7373,"란":7374,"랄":7375,"람":7376,"랍":7377,"랏":7378,"랐":7379,"랑":7380,"랖":7381,"랗":7382,"래":7383,"랙":7384,"랜":7385,"랠":7386,"램":7387,"랩":7388,"랫":7389,"랬":7390,"랭":7391,"랴":7392,"략":7393,"랸":7394,"량":7395,"럔":7396,"러":7397,"럭":7398,"런":7399,"럴":7400,"럼":7401,"럽":7402,"럿":7403,"렀":7404,"렁":7405,"렇":7406,"레":7407,"렉":7408,"렌":7409,"렐":7410,"렘":7411,"렙":7412,"렛":7413,"렝":7414,"려":7415,"력":7416,"련":7417,"렬":7418,"렴":7419,"렵":7420,"렷":7421,"렸":7422,"령":7423,"례":7424,"롄":7425,"로":7426,"록":7427,"론":7428,"롤":7429,"롬":7430,"롭":7431,"롯":7432,"롱":7433,"롸":7434,"롼":7435,"뢰":7436,"뢴":7437,"뢸":7438,"룀":7439,"룁":7440,"룅":7441,"료":7442,"룔":7443,"룡":7444,"루":7445,"룩":7446,"룬":7447,"룰":7448,"룸":7449,"룹":7450,"룻":7451,"룽":7452,"뤄":7453,"뤘":7454,"뤠":7455,"뤼":7456,"뤽":7457,"륀":7458,"륄":7459,"륑":7460,"류":7461,"륙":7462,"륜":7463,"률":7464,"륨":7465,"륭":7466,"르":7467,"륵":7468,"른":7469,"를":7470,"름":7471,"릅":7472,"릇":7473,"릉":7474,"릍":7475,"릎":7476,"릐":7477,"리":7478,"릭":7479,"린":7480,"릴":7481,"림":7482,"립":7483,"릿":7484,"링":7485,"맇":7486,"마":7487,"막":7488,"만":7489,"많":7490,"맏":7491,"말":7492,"맑":7493,"맘":7494,"맙":7495,"맛":7496,"망":7497,"맞":7498,"맡":7499,"맣":7500,"매":7501,"맥":7502,"맨":7503,"맬":7504,"맴":7505,"맵":7506,"맷":7507,"맸":7508,"맹":7509,"맺":7510,"먀":7511,"머":7512,"먹":7513,"먼":7514,"멀":7515,"멈":7516,"멋":7517,"멍":7518,"멎":7519,"멓":7520,"메":7521,"멕":7522,"멘":7523,"멜":7524,"멤":7525,"멥":7526,"멧":7527,"멨":7528,"멩":7529,"며":7530,"멱":7531,"면":7532,"멸":7533,"몃":7534,"몄":7535,"명":7536,"몇":7537,"몌":7538,"몐":7539,"모":7540,"목":7541,"몫":7542,"몬":7543,"몯":7544,"몰":7545,"몸":7546,"몹":7547,"못":7548,"몽":7549,"뫃":7550,"뫼":7551,"묀":7552,"묄":7553,"묑":7554,"묘":7555,"무":7556,"묵":7557,"묶":7558,"문":7559,"묻":7560,"물":7561,"묽":7562,"뭄":7563,"뭅":7564,"뭇":7565,"뭉":7566,"뭍":7567,"뭐":7568,"뭔":7569,"뭘":7570,"뭣":7571,"뮈":7572,"뮌":7573,"뮐":7574,"뮤":7575,"뮬":7576,"뮴":7577,"므":7578,"믄":7579,"믈":7580,"믐":7581,"믓":7582,"믜":7583,"미":7584,"믹":7585,"민":7586,"믿":7587,"밀":7588,"밈":7589,"밉":7590,"밋":7591,"밌":7592,"밍":7593,"및":7594,"밑":7595,"바":7596,"박":7597,"밖":7598,"반":7599,"받":7600,"발":7601,"밝":7602,"밟":7603,"밤":7604,"밥":7605,"밧":7606,"방":7607,"밭":7608,"배":7609,"백":7610,"밴":7611,"밸":7612,"뱀":7613,"뱁":7614,"뱃":7615,"뱅":7616,"뱉":7617,"뱌":7618,"뱐":7619,"뱡":7620,"버":7621,"벅":7622,"번":7623,"벋":7624,"벌":7625,"범":7626,"법":7627,"벗":7628,"벙":7629,"벚":7630,"베":7631,"벡":7632,"벤":7633,"벨":7634,"벰":7635,"벱":7636,"벳":7637,"벴":7638,"벵":7639,"벹":7640,"벼":7641,"벽":7642,"변":7643,"별":7644,"볍":7645,"볏":7646,"볐":7647,"병":7648,"볕":7649,"볘":7650,"볜":7651,"보":7652,"복":7653,"볶":7654,"본":7655,"볼":7656,"봄":7657,"봅":7658,"봇":7659,"봉":7660,"봐":7661,"봤":7662,"뵈":7663,"뵌":7664,"뵐":7665,"뵘":7666,"뵙":7667,"뵤":7668,"부":7669,"북":7670,"분":7671,"붇":7672,"불":7673,"붉":7674,"붏":7675,"붐":7676,"붑":7677,"붓":7678,"붕":7679,"붙":7680,"붸":7681,"뷔":7682,"뷘":7683,"뷜":7684,"뷰":7685,"뷴":7686,"뷸":7687,"븀":7688,"브":7689,"븐":7690,"블":7691,"비":7692,"빅":7693,"빈":7694,"빌":7695,"빎":7696,"빔":7697,"빕":7698,"빗":7699,"빙":7700,"빚":7701,"빛":7702,"빠":7703,"빡":7704,"빤":7705,"빨":7706,"빰":7707,"빱":7708,"빳":7709,"빴":7710,"빵":7711,"빻":7712,"빼":7713,"빽":7714,"뺀":7715,"뺄":7716,"뺌":7717,"뺏":7718,"뺐":7719,"뺑":7720,"뺨":7721,"뻐":7722,"뻑":7723,"뻔":7724,"뻗":7725,"뻘":7726,"뻣":7727,"뻤":7728,"뻬":7729,"뼈":7730,"뼉":7731,"뼘":7732,"뼛":7733,"뼝":7734,"뽀":7735,"뽈":7736,"뽐":7737,"뽑":7738,"뽕":7739,"뾰":7740,"뿌":7741,"뿍":7742,"뿐":7743,"뿔":7744,"뿜":7745,"뿡":7746,"뿥":7747,"쁘":7748,"쁜":7749,"쁠":7750,"쁨":7751,"쁩":7752,"삐":7753,"삘":7754,"삥":7755,"사":7756,"삭":7757,"삯":7758,"산":7759,"살":7760,"삵":7761,"삶":7762,"삼":7763,"삽":7764,"삿":7765,"샀":7766,"상":7767,"샅":7768,"새":7769,"색":7770,"샌":7771,"샐":7772,"샘":7773,"샙":7774,"샛":7775,"샜":7776,"생":7777,"샤":7778,"샨":7779,"샬":7780,"샴":7781,"샵":7782,"샷":7783,"샹":7784,"섀":7785,"섐":7786,"섕":7787,"서":7788,"석":7789,"섞":7790,"선":7791,"섣":7792,"설":7793,"섧":7794,"섬":7795,"섭":7796,"섯":7797,"섰":7798,"성":7799,"섶":7800,"세":7801,"섹":7802,"센":7803,"셀":7804,"셈":7805,"셉":7806,"셋":7807,"셌":7808,"셍":7809,"셔":7810,"셕":7811,"션":7812,"셜":7813,"셤":7814,"셧":7815,"셨":7816,"셩":7817,"셰":7818,"셱":7819,"셴":7820,"셸":7821,"솀":7822,"솅":7823,"소":7824,"속":7825,"솎":7826,"손":7827,"솔":7828,"솜":7829,"솝":7830,"솟":7831,"송":7832,"솥":7833,"솰":7834,"솽":7835,"쇄":7836,"쇠":7837,"쇤":7838,"쇳":7839,"쇼":7840,"숀":7841,"숄":7842,"숌":7843,"숍":7844,"숏":7845,"숑":7846,"수":7847,"숙":7848,"순":7849,"숟":7850,"술":7851,"숧":7852,"숨":7853,"숩":7854,"숫":7855,"숭":7856,"숯":7857,"숱":7858,"숲":7859,"숴":7860,"쉈":7861,"쉐":7862,"쉘":7863,"쉥":7864,"쉬":7865,"쉰":7866,"쉴":7867,"쉼":7868,"쉽":7869,"슈":7870,"슉":7871,"슌":7872,"슐":7873,"슘":7874,"슛":7875,"슝":7876,"스":7877,"슥":7878,"슨":7879,"슬":7880,"슭":7881,"슳":7882,"슴":7883,"습":7884,"슷":7885,"승":7886,"슾":7887,"시":7888,"식":7889,"신":7890,"싣":7891,"실":7892,"싫":7893,"심":7894,"십":7895,"싯":7896,"싱":7897,"싶":7898,"싸":7899,"싹":7900,"싼":7901,"쌀":7902,"쌇":7903,"쌈":7904,"쌉":7905,"쌌":7906,"쌍":7907,"쌓":7908,"쌔":7909,"쌕":7910,"쌘":7911,"쌩":7912,"쌸":7913,"썅":7914,"썐":7915,"써":7916,"썩":7917,"썬":7918,"썰":7919,"썸":7920,"썹":7921,"썻":7922,"썼":7923,"썽":7924,"쎄":7925,"쎈":7926,"쏘":7927,"쏙":7928,"쏜":7929,"쏟":7930,"쏠":7931,"쏨":7932,"쏭":7933,"쏴":7934,"쏸":7935,"쐈":7936,"쐉":7937,"쐐":7938,"쐑":7939,"쐬":7940,"쐰":7941,"쑈":7942,"쑤":7943,"쑥":7944,"쑨":7945,"쑬":7946,"쑹":7947,"쒀":7948,"쓰":7949,"쓱":7950,"쓴":7951,"쓸":7952,"씀":7953,"씁":7954,"씌":7955,"씐":7956,"씨":7957,"씩":7958,"씬":7959,"씰":7960,"씸":7961,"씹":7962,"씻":7963,"씽":7964,"아":7965,"악":7966,"안":7967,"앉":7968,"않":7969,"알":7970,"앎":7971,"앏":7972,"앒":7973,"앓":7974,"암":7975,"압":7976,"앗":7977,"았":7978,"앙":7979,"앚":7980,"앞":7981,"애":7982,"액":7983,"앤":7984,"앨":7985,"앰":7986,"앱":7987,"앳":7988,"앴":7989,"앵":7990,"야":7991,"약":7992,"얀":7993,"얄":7994,"얇":7995,"얌":7996,"얍":7997,"얏":7998,"얐":7999,"양":8000,"얕":8001,"얗":8002,"얘":8003,"얜":8004,"얠":8005,"어":8006,"억":8007,"언":8008,"얹":8009,"얻":8010,"얼":8011,"얽":8012,"엄":8013,"업":8014,"없":8015,"엇":8016,"었":8017,"엉":8018,"엊":8019,"엌":8020,"엎":8021,"에":8022,"엑":8023,"엔":8024,"엘":8025,"엠":8026,"엡":8027,"엣":8028,"엥":8029,"여":8030,"역":8031,"엮":8032,"연":8033,"엱":8034,"열":8035,"엷":8036,"염":8037,"엽":8038,"엾":8039,"엿":8040,"였":8041,"영":8042,"옅":8043,"옆":8044,"옇":8045,"예":8046,"옌":8047,"옐":8048,"옘":8049,"옙":8050,"옛":8051,"오":8052,"옥":8053,"온":8054,"옫":8055,"올":8056,"옭":8057,"옮":8058,"옯":8059,"옳":8060,"옴":8061,"옵":8062,"옷":8063,"옹":8064,"옻":8065,"와":8066,"왁":8067,"완":8068,"왈":8069,"왐":8070,"왑":8071,"왓":8072,"왔":8073,"왕":8074,"왜":8075,"왠":8076,"왱":8077,"외":8078,"왹":8079,"왼":8080,"욀":8081,"욋":8082,"욍":8083,"요":8084,"욕":8085,"욘":8086,"욜":8087,"욤":8088,"욥":8089,"욧":8090,"용":8091,"우":8092,"욱":8093,"운":8094,"울":8095,"욺":8096,"욾":8097,"움":8098,"웁":8099,"웃":8100,"웅":8101,"워":8102,"웍":8103,"원":8104,"월":8105,"웜":8106,"웟":8107,"웠":8108,"웨":8109,"웩":8110,"웬":8111,"웰":8112,"웸":8113,"웹":8114,"웻":8115,"웽":8116,"위":8117,"윅":8118,"윈":8119,"윌":8120,"윔":8121,"윕":8122,"윗":8123,"윙":8124,"유":8125,"육":8126,"윤":8127,"율":8128,"윰":8129,"윳":8130,"융":8131,"윷":8132,"으":8133,"윽":8134,"은":8135,"읃":8136,"을":8137,"읊":8138,"음":8139,"읍":8140,"읏":8141,"응":8142,"의":8143,"읜":8144,"읨":8145,"이":8146,"익":8147,"인":8148,"일":8149,"읽":8150,"잃":8151,"임":8152,"입":8153,"잇":8154,"있":8155,"잉":8156,"잊":8157,"잎":8158,"자":8159,"작":8160,"잔":8161,"잖":8162,"잘":8163,"잠":8164,"잡":8165,"잣":8166,"잤":8167,"장":8168,"잦":8169,"재":8170,"잭":8171,"잰":8172,"잴":8173,"잼":8174,"잽":8175,"잿":8176,"쟀":8177,"쟁":8178,"쟈":8179,"쟉":8180,"쟌":8181,"쟘":8182,"쟝":8183,"쟨":8184,"저":8185,"적":8186,"전":8187,"젇":8188,"절":8189,"젊":8190,"점":8191,"접":8192,"젓":8193,"정":8194,"젖":8195,"제":8196,"젝":8197,"젠":8198,"젤":8199,"젬":8200,"젭":8201,"젯":8202,"젱":8203,"져":8204,"젹":8205,"젼":8206,"졀":8207,"졈":8208,"졉":8209,"졌":8210,"졍":8211,"졔":8212,"조":8213,"족":8214,"존":8215,"졸":8216,"좀":8217,"좁":8218,"좃":8219,"종":8220,"좆":8221,"좇":8222,"좋":8223,"좌":8224,"좐":8225,"좔":8226,"좡":8227,"좨":8228,"죄":8229,"죈":8230,"죔":8231,"죗":8232,"죙":8233,"죠":8234,"죤":8235,"주":8236,"죽":8237,"준":8238,"줄":8239,"줌":8240,"줍":8241,"줏":8242,"중":8243,"줘":8244,"줬":8245,"줴":8246,"쥐":8247,"쥔":8248,"쥘":8249,"쥠":8250,"쥬":8251,"쥰":8252,"쥴":8253,"즁":8254,"즈":8255,"즉":8256,"즌":8257,"즐":8258,"즘":8259,"즙":8260,"즛":8261,"증":8262,"지":8263,"직":8264,"진":8265,"짇":8266,"질":8267,"짊":8268,"짐":8269,"집":8270,"짓":8271,"징":8272,"짖":8273,"짙":8274,"짚":8275,"짜":8276,"짝":8277,"짠":8278,"짢":8279,"짤":8280,"짧":8281,"짬":8282,"짭":8283,"짰":8284,"짱":8285,"째":8286,"짹":8287,"짼":8288,"쨀":8289,"쨈":8290,"쨌":8291,"쨍":8292,"쨔":8293,"쨴":8294,"쩌":8295,"쩍":8296,"쩐":8297,"쩔":8298,"쩜":8299,"쩝":8300,"쩡":8301,"쩨":8302,"쪄":8303,"쪘":8304,"쪼":8305,"쪽":8306,"쫀":8307,"쫄":8308,"쫑":8309,"쫒":8310,"쫓":8311,"쫙":8312,"쬐":8313,"쬔":8314,"쬠":8315,"쭈":8316,"쭉":8317,"쭌":8318,"쭐":8319,"쭙":8320,"쭝":8321,"쭤":8322,"쮸":8323,"쯔":8324,"쯤":8325,"찌":8326,"찍":8327,"찐":8328,"찔":8329,"찜":8330,"찝":8331,"찡":8332,"찢":8333,"찧":8334,"차":8335,"착":8336,"찬":8337,"찮":8338,"찰":8339,"참":8340,"찹":8341,"찻":8342,"찼":8343,"창":8344,"찾":8345,"채":8346,"책":8347,"챈":8348,"챌":8349,"챔":8350,"챕":8351,"챗":8352,"챘":8353,"챙":8354,"챠":8355,"챤":8356,"챵":8357,"첀":8358,"처":8359,"척":8360,"천":8361,"첝":8362,"철":8363,"첨":8364,"첩":8365,"첫":8366,"청":8367,"체":8368,"첵":8369,"첸":8370,"첼":8371,"쳄":8372,"쳅":8373,"쳇":8374,"쳉":8375,"쳐":8376,"쳔":8377,"쳤":8378,"쳥":8379,"쳬":8380,"초":8381,"촉":8382,"촌":8383,"촐":8384,"촘":8385,"촛":8386,"총":8387,"촨":8388,"촬":8389,"촹":8390,"쵀":8391,"쵄":8392,"최":8393,"쵠":8394,"쵸":8395,"춍":8396,"추":8397,"축":8398,"춘":8399,"출":8400,"춤":8401,"춥":8402,"춧":8403,"충":8404,"춰":8405,"췄":8406,"췌":8407,"취":8408,"췬":8409,"츄":8410,"츈":8411,"츙":8412,"츠":8413,"측":8414,"츤":8415,"츨":8416,"츰":8417,"층":8418,"칀":8419,"치":8420,"칙":8421,"친":8422,"칠":8423,"칡":8424,"침":8425,"칩":8426,"칫":8427,"칭":8428,"카":8429,"칵":8430,"칸":8431,"칼":8432,"캄":8433,"캅":8434,"캇":8435,"캉":8436,"캐":8437,"캑":8438,"캔":8439,"캘":8440,"캠":8441,"캡":8442,"캣":8443,"캥":8444,"캬":8445,"커":8446,"컥":8447,"컨":8448,"컫":8449,"컬":8450,"컴":8451,"컵":8452,"컷":8453,"컸":8454,"컹":8455,"케":8456,"켄":8457,"켈":8458,"켐":8459,"켑":8460,"켓":8461,"켕":8462,"켜":8463,"켠":8464,"켤":8465,"켰":8466,"코":8467,"콕":8468,"콘":8469,"콜":8470,"콤":8471,"콥":8472,"콧":8473,"콩":8474,"콰":8475,"콴":8476,"콸":8477,"쾅":8478,"쾌":8479,"쾡":8480,"쾨":8481,"쾰":8482,"쿄":8483,"쿠":8484,"쿡":8485,"쿤":8486,"쿨":8487,"쿰":8488,"쿱":8489,"쿳":8490,"쿵":8491,"쿼":8492,"퀀":8493,"퀄":8494,"퀘":8495,"퀜":8496,"퀴":8497,"퀵":8498,"퀸":8499,"퀼":8500,"큇":8501,"큉":8502,"큐":8503,"큘":8504,"크":8505,"큰":8506,"클":8507,"큼":8508,"큽":8509,"킁":8510,"키":8511,"킥":8512,"킨":8513,"킬":8514,"킴":8515,"킵":8516,"킷":8517,"킹":8518,"타":8519,"탁":8520,"탄":8521,"탈":8522,"탉":8523,"탐":8524,"탑":8525,"탓":8526,"탔":8527,"탕":8528,"태":8529,"택":8530,"탠":8531,"탤":8532,"탬":8533,"탭":8534,"탯":8535,"탰":8536,"탱":8537,"탸":8538,"터":8539,"턱":8540,"턴":8541,"털":8542,"텀":8543,"텁":8544,"텃":8545,"텄":8546,"텅":8547,"테":8548,"텍":8549,"텐":8550,"텔":8551,"템":8552,"텝":8553,"텟":8554,"텡":8555,"텨":8556,"텬":8557,"텰":8558,"텻":8559,"텼":8560,"톄":8561,"톈":8562,"토":8563,"톡":8564,"톤":8565,"톨":8566,"톰":8567,"톱":8568,"톳":8569,"통":8570,"퇀":8571,"퇘":8572,"퇴":8573,"퇸":8574,"퇼":8575,"툇":8576,"툐":8577,"툠":8578,"투":8579,"툭":8580,"툰":8581,"툴":8582,"툼":8583,"툽":8584,"퉁":8585,"퉈":8586,"퉜":8587,"튀":8588,"튄":8589,"튈":8590,"튐":8591,"튕":8592,"튜":8593,"튝":8594,"튠":8595,"튤":8596,"튬":8597,"튱":8598,"트":8599,"특":8600,"튻":8601,"튼":8602,"튿":8603,"틀":8604,"틈":8605,"틋":8606,"틔":8607,"티":8608,"틱":8609,"틴":8610,"틸":8611,"팀":8612,"팁":8613,"팅":8614,"파":8615,"팍":8616,"팎":8617,"판":8618,"팔":8619,"팜":8620,"팝":8621,"팟":8622,"팠":8623,"팡":8624,"팥":8625,"패":8626,"팩":8627,"팬":8628,"팰":8629,"팸":8630,"팹":8631,"팻":8632,"팽":8633,"퍄":8634,"퍼":8635,"퍽":8636,"펀":8637,"펄":8638,"펌":8639,"펏":8640,"펐":8641,"펑":8642,"페":8643,"펙":8644,"펜":8645,"펠":8646,"펨":8647,"펩":8648,"펫":8649,"펭":8650,"펴":8651,"편":8652,"펼":8653,"폄":8654,"폈":8655,"평":8656,"폐":8657,"포":8658,"폭":8659,"폰":8660,"폴":8661,"폼":8662,"폽":8663,"폿":8664,"퐁":8665,"푀":8666,"푄":8667,"푈":8668,"표":8669,"푯":8670,"푸":8671,"푹":8672,"푼":8673,"풀":8674,"풂":8675,"품":8676,"풉":8677,"풋":8678,"풍":8679,"풔":8680,"퓌":8681,"퓐":8682,"퓔":8683,"퓨":8684,"퓰":8685,"퓸":8686,"퓽":8687,"프":8688,"픈":8689,"플":8690,"픔":8691,"픠":8692,"픨":8693,"피":8694,"픽":8695,"핀":8696,"필":8697,"핌":8698,"핍":8699,"핏":8700,"핑":8701,"하":8702,"학":8703,"한":8704,"할":8705,"핥":8706,"함":8707,"합":8708,"핫":8709,"항":8710,"해":8711,"핵":8712,"핸":8713,"핼":8714,"햄":8715,"햅":8716,"햇":8717,"했":8718,"행":8719,"햐":8720,"향":8721,"허":8722,"헉":8723,"헌":8724,"헐":8725,"험":8726,"헛":8727,"헝":8728,"헤":8729,"헥":8730,"헨":8731,"헬":8732,"헴":8733,"헵":8734,"헷":8735,"헹":8736,"혀":8737,"혁":8738,"현":8739,"혈":8740,"혐":8741,"협":8742,"혓":8743,"혔":8744,"형":8745,"혜":8746,"호":8747,"혹":8748,"혼":8749,"홀":8750,"홈":8751,"홉":8752,"홋":8753,"홍":8754,"홑":8755,"화":8756,"확":8757,"환":8758,"활":8759,"홥":8760,"홧":8761,"황":8762,"홰":8763,"횃":8764,"회":8765,"획":8766,"횐":8767,"횔":8768,"횟":8769,"횡":8770,"효":8771,"후":8772,"훅":8773,"훈":8774,"훌":8775,"훑":8776,"훔":8777,"훗":8778,"훙":8779,"훠":8780,"훤":8781,"훨":8782,"훼":8783,"휄":8784,"휘":8785,"휜":8786,"휠":8787,"휨":8788,"휩":8789,"휫":8790,"휴":8791,"휼":8792,"흄":8793,"흉":8794,"흐":8795,"흑":8796,"흔":8797,"흗":8798,"흘":8799,"흙":8800,"흠":8801,"흡":8802,"흣":8803,"흥":8804,"흩":8805,"희":8806,"흰":8807,"흴":8808,"흼":8809,"흿":8810,"히":8811,"힉":8812,"힌":8813,"힐":8814,"힘":8815,"힙":8816,"힛":8817,"힝":8818,"":8819,"":8820,"":8821,"":8822,"":8823,"":8824,"":8825,"":8826,"":8827,"":8828,"":8829,"":8830,"":8831,"":8832,"":8833,"":8834,"":8835,"":8836,"":8837,"":8838,"":8839,"":8840,"":8841,"":8842,"":8843,"":8844,"":8845,"":8846,"":8847,"":8848,"":8849,"":8850,"":8851,"":8852,"":8853,"":8854,"":8855,"":8856,"":8857,"":8858,"":8859,"":8860,"":8861,"":8862,"":8863,"":8864,"":8865,"":8866,"":8867,"":8868,"":8869,"":8870,"":8871,"":8872,"":8873,"":8874,"":8875,"":8876,"":8877,"":8878,"":8879,"":8880,"":8881,"":8882,"":8883,"":8884,"":8885,"":8886,"":8887,"":8888,"":8889,"":8890,"":8891,"":8892,"":8893,"":8894,"":8895,"":8896,"":8897,"":8898,"":8899,"":8900,"":8901,"":8902,"":8903,"":8904,"":8905,"":8906,"":8907,"":8908,"":8909,"":8910,"":8911,"":8912,"":8913,"":8914,"":8915,"":8916,"":8917,"":8918,"":8919,"":8920,"":8921,"":8922,"":8923,"":8924,"":8925,"":8926,"":8927,"":8928,"":8929,"":8930,"":8931,"":8932,"":8933,"":8934,"":8935,"":8936,"":8937,"":8938,"":8939,"":8940,"":8941,"":8942,"":8943,"":8944,"":8945,"":8946,"":8947,"":8948,"":8949,"":8950,"":8951,"":8952,"":8953,"":8954,"":8955,"":8956,"":8957,"":8958,"":8959,"":8960,"":8961,"":8962,"":8963,"":8964,"":8965,"":8966,"":8967,"":8968,"":8969,"":8970,"":8971,"":8972,"":8973,"":8974,"":8975,"":8976,"":8977,"":8978,"":8979,"":8980,"":8981,"":8982,"":8983,"":8984,"":8985,"":8986,"":8987,"":8988,"":8989,"":8990,"":8991,"":8992,"":8993,"":8994,"":8995,"":8996,"":8997,"":8998,"":8999,"":9000,"":9001,"":9002,"":9003,"":9004,"":9005,"":9006,"":9007,"":9008,"":9009,"𩆸":9010,"󰑔":9011,"󰑛":9012,"󰑞":9013,"󰑥":9014,"󰑮":9015,"다.":9016,"다.\n":9017,"▁이":9018,"▁있":9019,"▁1":9020,"으로":9021,"▁그":9022,"에서":9023,"▁사":9024,"▁수":9025,"▁대":9026,"▁지":9027,"▁가":9028,"▁있다.\n":9029,"▁등":9030,"▁것":9031,"▁기":9032,"하는":9033,"▁전":9034,"었다.\n":9035,"▁한":9036,"▁제":9037,"하고":9038,"▁시":9039,"▁정":9040,"▁19":9041,"▁자":9042,"▁일":9043,"▁중":9044,"▁2":9045,"▁주":9046,"하여":9047,"이다.\n":9048,"▁보":9049,"▁아":9050,"▁\n":9051,"에는":9052,"▁경":9053,"▁다":9054,"▁유":9055,"▁위":9056,"하였":9057,"▁관":9058,"▁조":9059,"▁인":9060,"며,":9061,"했다.\n":9062,"▁나":9063,"▁부":9064,"▁고":9065,"▁의":9066,"▁공":9067,"▁때":9068,"▁되":9069,"▁동":9070,"▁서":9071,"▁비":9072,"▁구":9073,"▁상":9074,"고,":9075,"▁원":9076,"▁소":9077,"▁하":9078,"▁모":9079,"▁있는":9080,"▁연":9081,"▁발":9082,")·":9083,"▁신":9084,"▁3":9085,"▁개":9086,"하였다.\n":9087,"▁세":9088,"▁문":9089,"적인":9090,"▁생":9091,"▁국":9092,"▁여":9093,"▁내":9094,"▁도":9095,"▁성":9096,"▁영":9097,"▁해":9098,"▁교":9099,"00":9100,"으며,":9101,"▁작":9102,"▁만":9103,"되어":9104,"▁어":9105,"▁따":9106,"▁통":9107,"▁또":9108,"▁마":9109,"▁장":9110,"▁않":9111,"▁남":9112,"되었다.\n":9113,"▁오":9114,"적으로":9115,")의":9116,"▁바":9117,"▁무":9118,"한다.\n":9119,"▁강":9120,"▁미":9121,"▁거":9122,"▁선":9123,"하게":9124,"▁특":9125,"▁없":9126,"▁방":9127,"▁불":9128,"▁분":9129,"▁4":9130,"이라":9131,"▁우":9132,"▁후":9133,"에게":9134,"▁말":9135,"들이":9136,"▁실":9137,"▁반":9138,"),":9139,"▁및":9140,"▁현":9141,"▁계":9142,"▁5":9143,"▁같":9144,"▁산":9145,"▁많":9146,"(1":9147,"부터":9148,"면서":9149,"▁재":9150,"▁〈":9151,"▁결":9152,"▁노":9153,"하기":9154,"데,":9155,"된다.\n":9156,"▁형":9157,"0년":9158,"▁종":9159,"▁설":9160,"▁따라":9161,"▁당":9162,"▁단":9163,"▁양":9164,"▁받":9165,"▁진":9166,"▁대한":9167,"까지":9168,"▁물":9169,"▁명":9170,"▁18":9171,"▁‘":9172,"다는":9173,"▁두":9174,"▁[":9175,"지만":9176,"들은":9177,"▁한다.\n":9178,"▁사람":9179,"에서는":9180,"▁알":9181,"▁예":9182,"▁안":9183,"▁역":9184,"이나":9185,"되었":9186,"▁행":9187,"▁각":9188,")에":9189,"학교":9190,"▁6":9191,"▁화":9192,"▁건":9193,"▁'":9194,"▁평":9195,"으나":9196,"▁함":9197,"▁그러":9198,"▁것이":9199,"▁뒤":9200,"▁왕":9201,"▁변":9202,"▁파":9203,")이":9204,"들어":9205,"▁초":9206,"▁위해":9207,"▁배":9208,"▁사용":9209,")을":9210,"▁적":9211,"▁최":9212,"▁되었다.\n":9213,"▁차":9214,"▁매":9215,"▁출":9216,"다고":9217,"▁표":9218,"▁군":9219,"▁추":9220,"▁권":9221,"▁그리":9222,"▁:":9223,"들의":9224,"▁등이":9225,"▁간":9226,"▁활":9227,"▁과":9228,"▁독":9229,"▁스":9230,"▁포":9231,"▁민":9232,"▁북":9233,"▁프":9234,"▁임":9235,"▁법":9236,"▁때문":9237,"▁속":9238,"▁같은":9239,"▁점":9240,"▁입":9241,"▁요":9242,"▁것으로":9243,"▁감":9244,"▁학":9245,"▁약":9246,"▁7":9247,"으며":9248,"▁경우":9249,"▁그러나":9250,"주의":9251,"▁근":9252,"▁8":9253,"았다.\n":9254,"▁회":9255,"▁외":9256,"▁것이다.\n":9257,"▁그는":9258,"▁목":9259,"▁직":9260,"들을":9261,"되는":9262,"▁이루":9263,"▁증":9264,"▁저":9265,"▁편":9266,"▁더":9267,"년(":9268,"▁본":9269,"▁조선":9270,"▁달":9271,"지는":9272,"▁운":9273,"▁필":9274,"▁호":9275,"▁등을":9276,"▁하는":9277,"▁가장":9278,"▁지역":9279,"▁데":9280,"▁농":9281,"▁새":9282,"년에":9283,"▁등의":9284,"▁금":9285,"▁확":9286,"는데,":9287,"▁처":9288,"세기":9289,"▁것을":9290,")를":9291,"▁10":9292,"▁집":9293,"▁그의":9294,"사이":9295,"▁광":9296,"▁크":9297,"▁태":9298,"▁삼":9299,"▁청":9300,"▁피":9301,"(19":9302,"▁9":9303,"▁함께":9304,"보기":9305,"▁다른":9306,"하고,":9307,"▁사회":9308,").":9309,"▁나타":9310,"▁여러":9311,"▁높":9312,"기도":9313,"거나":9314,"▁돌":9315,"라는":9316,"다가":9317,"▁합":9318,"▁토":9319,"▁아니":9320,"▁원본":9321,"▁또한":9322,"▁또는":9323,"▁김":9324,"에도":9325,"▁20":9326,"▁심":9327,"하지":9328,"라고":9329,"▁음":9330,"▁이후":9331,"사(":9332,"사이즈":9333,"▁원본사이즈":9334,"▁원본사이즈보기":9335,"내용":9336,"▁할":9337,"▁참":9338,"▁살":9339,"▁가지":9340,"▁있어":9341,"▁창":9342,"▁「":9343,"▁15":9344,"▁천":9345,"▁체":9346,"▁시작":9347,"도록":9348,"▁12":9349,"▁못":9350,"▁우리":9351,"▁규":9352,"▁16":9353,"로서":9354,"▁때문에":9355,"▁열":9356,"▁작품":9357,"▁백":9358,"▁들어":9359,"▁일본":9360,"니다.\n":9361,"▁것은":9362,"4년":9363,"5년":9364,"국의":9365,"▁많은":9366,"▁길":9367,"기를":9368,"▁내용":9369,"시대":9370,"▁『":9371,"요한":9372,"▁17":9373,"8년":9374,"나라":9375,"▁식":9376,"성을":9377,"▁관한":9378,"리를":9379,"▁의해":9380,")가":9381,"▁복":9382,"이라고":9383,"▁용":9384,"▁[내용":9385,"▁200":9386,"부분":9387,"▁[내용]":9388,"▁구성":9389,"▁총":9390,"사를":9391,"9년":9392,"▁죽":9393,"▁그리고":9394,"▁채":9395,"편,":9396,"리아":9397,"6년":9398,"기에":9399,"2년":9400,"자의":9401,"▁하나":9402,"3년":9403,"하다.\n":9404,"되고":9405,"▁중심":9406,"▁치":9407,"▁항":9408,"리는":9409,"▁철":9410,"▁면":9411,"7년":9412,"▁병":9413,"▁있었":9414,"▁자신":9415,"▁있었다.\n":9416,"▁연구":9417,"▁있으며,":9418,"▁충":9419,"▁이러":9420,"▁타":9421,"▁위한":9422,"▁당시":9423,"▁이러한":9424,"▁석":9425,"▁한국":9426,"▁다시":9427,"▁되어":9428,"▁황":9429,"▁통해":9430,")과":9431,"▁모두":9432,"므로":9433,"1년":9434,"▁사이":9435,"자가":9436,"▁기록":9437,"상을":9438,"지를":9439,"▁(":9440,"▁제1":9441,"▁이루어":9442,"▁잘":9443,"▁이용":9444,"이라는":9445,"기는":9446,"▁특히":9447,"하면서":9448,"서는":9449,"▁책":9450,"▁쓰":9451,"▁199":9452,"▁판":9453,"▁로":9454,"▁즉":9455,"▁올":9456,"▁세계":9457,"▁큰":9458,"▁14":9459,"로는":9460,"▁197":9461,"▁생산":9462,"▁했다.\n":9463,"▁관련":9464,"▁정도":9465,"이고":9466,"▁담":9467,"▁절":9468,"서,":9469,"▁순":9470,"▁이름":9471,"▁지방":9472,"▁198":9473,"▁완":9474,")」":9475,"▁곳":9476,"▁승":9477,"▁활동":9478,"▁에":9479,"기의":9480,"▁되었":9481,"▁196":9482,"▁국가":9483,"▁갖":9484,"er":9485,"▁풍":9486,"시아":9487,"▁카":9488,"이는":9489,"▁현재":9490,"▁고려":9491,"력을":9492,"운데":9493,"▁교육":9494,"기가":9495,"지만,":9496,"▁앞":9497,"▁된":9498,"▁취":9499,")으로":9500,"▁11":9501,"▁효":9502,"다\n":9503,"▁귀":9504,"였다.\n":9505,"대로":9506,"정을":9507,"▁된다.\n":9508,"시키":9509,"▁이상":9510,"하면":9511,"하며":9512,"▁가운데":9513,"▁194":9514,"▁번":9515,"▁하였다.\n":9516,"▁대부분":9517,"보다":9518,"▁이르":9519,"로운":9520,"으로써":9521,"▁중국":9522,"▁환":9523,"▁박":9524,"▁존":9525,"▁손":9526,"▁언":9527,"▁미국":9528,"▁봉":9529,"cm":9530,"▁향":9531,"졌다.\n":9532,"▁영향":9533,"▁끝":9534,"▁드":9535,"▁다음":9536,"어나":9537,"▁베":9538,"▁걸":9539,"▁·":9540,"▁형태":9541,"▁정치":9542,"▁하여":9543,"▁일반":9544,"▁13":9545,"▁갈":9546,"▁비롯":9547,"▁모든":9548,"on":9549,"▁발전":9550,"이었다.\n":9551,"▁대해":9552,"▁문화":9553,"▁아니라":9554,"▁경제":9555,"리에":9556,"▁프랑":9557,"▁이를":9558,"사가":9559,")로":9560,"▁문제":9561,"식을":9562,"▁서울":9563,"▁많이":9564,"km":9565,"▁줄":9566,"▁192":9567,"는다.\n":9568,"회의":9569,"▁논":9570,"▁-":9571,"▁사실":9572,"대의":9573,"an":9574,")와":9575,"▁195":9576,"▁193":9577,"인의":9578,"(李":9579,"▁볼":9580,"스트":9581,"처럼":9582,"▁잡":9583,"▁주로":9584,".\n":9585,"▁온":9586,"(金":9587,"나무":9588,"자를":9589,"▁투":9590,"부의":9591,"▁동안":9592,"으나,":9593,"이며,":9594,"▁201":9595,"▁허":9596,"▁방법":9597,"▁의미":9598,"자는":9599,"으로는":9600,"서식":9601,"▁나라":9602,"▁설치":9603,"▁이어":9604,"문화":9605,"▁검":9606,"장을":9607,"▁다양":9608,"▁처음":9609,"in":9610,"▁프랑스":9611,"성이":9612,"▁대표":9613,"▁제2":9614,"계를":9615,"▁일부":9616,"0년대":9617,"▁극":9618,"▁≪":9619,"리가":9620,"▁글":9621,"▁맞":9622,"▁폐":9623,"▁급":9624,"▁들":9625,"도를":9626,"음을":9627,"▁주요":9628,"▁행정":9629,"▁얻":9630,"사의":9631,"▁자연":9632,"▁질":9633,")은":9634,"지역":9635,"개의":9636,"▁묘":9637,"도가":9638,"이며":9639,"▁“":9640,"▁업":9641,"▁표현":9642,"▁중앙":9643,"▁인간":9644,"▁이것":9645,"▁뜻":9646,"▁도시":9647,"운동":9648,"▁암":9649,"▁중요한":9650,"▁했":9651,"▁변화":9652,"▁191":9653,"진다.\n":9654,"▁매우":9655,"대학교":9656,"위를":9657,"▁생각":9658,"▁만들어":9659,"▁발생":9660,"이었":9661,")에서":9662,"▁포함":9663,"▁리":9664,"▁침":9665,"▁알려":9666,")는":9667,"는데":9668,"▁누":9669,"도의":9670,"대학":9671,"▁축":9672,"▁날":9673,"▁은":9674,"들과":9675,"▁하고":9676,"▁좋":9677,"▁형성":9678,"▁부분":9679,"▁조직":9680,")’":9681,"▁위치":9682,"지로":9683,"▁생활":9684,"해야":9685,"▁별":9686,"▁영국":9687,"▁있고,":9688,"▁새로운":9689,"위원":9690,"▁능":9691,"〉(19":9692,"물을":9693,"상의":9694,"▁만들":9695,"▁협":9696,"▁송":9697,"▁기술":9698,"▁이에":9699,"▁받아":9700,"▁준":9701,"리의":9702,"▁접":9703,"▁특징":9704,"..":9705,"▁발견":9706,"▁B":9707,"▁인구":9708,"▁섬":9709,"▁둘":9710,"장이":9711,"▁없는":9712,"쪽으로":9713,"en":9714,"정한":9715,"▁계속":9716,"들에게":9717,"▁꽃":9718,"▁육":9719,"인이":9720,"▁역사":9721,"▁홍":9722,"▁힘":9723,"▁<":9724,"▁노동":9725,"▁프로":9726,"▁작성":9727,"▁친":9728,"기관":9729,"▁막":9730,"▁탄":9731,"▁자유":9732,"에서도":9733,"▁따라서":9734,"▁지식":9735,"▁몸":9736,"지가":9737,"하며,":9738,"로부터":9739,"~1":9740,"▁코":9741,"권을":9742,"제를":9743,"▁찾":9744,"▁자신의":9745,"▁밀":9746,"▁시행":9747,"서를":9748,"▁혼":9749,"지의":9750,"▁정부":9751,"▁C":9752,"▁등에":9753,"▁돌아":9754,"▁라":9755,"교육":9756,"▁좌":9757,"도로":9758,"▁전체":9759,"이가":9760,"▁말한다.\n":9761,"▁독립":9762,"▁머":9763,"원의":9764,"▁측":9765,"인다.\n":9766,"▁국제":9767,"ti":9768,"▁난":9769,"▁설립":9770,"원을":9771,"▁A":9772,"▁크게":9773,"▁몇":9774,"자,":9775,"al":9776,"▁모양":9777,"he":9778,"▁같이":9779,"으로서":9780,"▁밝":9781,"▁지금":9782,"▁거의":9783,"▁먹":9784,"▁주장":9785,"▁의한":9786,"시에":9787,"▁수도":9788,"르는":9789,"했으며,":9790,"▁T":9791,"es":9792,"▁아래":9793,"▁범":9794,"▁영향을":9795,"▁이는":9796,"▁보여":9797,")』":9798,"스의":9799,"▁평가":9800,"▁않고":9801,"▁결과":9802,"▁메":9803,"▁관계":9804,"으로,":9805,"▁필요":9806,"▁개발":9807,"▁붙":9808,"물의":9809,"지고":9810,"▁남아":9811,"▁나타나":9812,"월에":9813,"▁위하여":9814,"▁S":9815,"▁있던":9816,"▁구조":9817,"▁빈":9818,"▁기능":9819,"▁발달":9820,"or":9821,"상이":9822,"화를":9823,"▁전통":9824,"하도록":9825,"▁가능":9826,"리카":9827,"자로":9828,"▁폭":9829,"연구":9830,"▁애":9831,"▁그림":9832,"무를":9833,"대를":9834,"▁그것":9835,"▁작은":9836,"ar":9837,"하려":9838,"회를":9839,"면,":9840,"기(":9841,"▁결정":9842,"▁유명":9843,"지에":9844,"▁존재":9845,"▁있을":9846,"▁눈":9847,"▁버":9848,"▁넓":9849,"했던":9850,"산(":9851,"▁문학":9852,"▁이곳":9853,"▁민족":9854,"▁만든":9855,"▁뿐":9856,"▁아버":9857,"밖에":9858,"▁있는데,":9859,"스는":9860,"▁중요":9861,"▁모습":9862,"▁어떤":9863,"▁로마":9864,"▁독일":9865,"사로":9866,"해서":9867,"▁악":9868,"000":9869,"▁놓":9870,"▁그가":9871,"▁이전":9872,"▁네":9873,"▁실시":9874,"대에":9875,"▁벌":9876,"▁첫":9877,"제의":9878,"▁제작":9879,"▁각각":9880,"도(":9881,"▁다양한":9882,"명을":9883,"▁전쟁":9884,"리고":9885,"▁잎":9886,"▁가지고":9887,"▁국민":9888,"(18":9889,"왔다.\n":9890,"▁산업":9891,"▁궁":9892,"▁야":9893,"원이":9894,"▁최초":9895,"▁연결":9896,"부를":9897,"▁거쳐":9898,"▁윤":9899,"하거나":9900,"▁넘":9901,"명의":9902,"▁얼":9903,"▁견":9904,"▁있으며":9905,").\n":9906,"레이":9907,"사는":9908,"▁없다.\n":9909,"어난":9910,"▁190":9911,"▁운동":9912,"대한":9913,"문학":9914,"▁등으로":9915,"▁중심으로":9916,"간의":9917,"함으로써":9918,"▁서로":9919,"▁색":9920,"▁역할":9921,"▁유지":9922,"▁염":9923,"▁M":9924,"▁사업":9925,"기로":9926,"▁곧":9927,"체의":9928,"▁필요한":9929,"▁루":9930,"▁유럽":9931,"가는":9932,"▁신라":9933,"▁되는":9934,"사업":9935,"랜드":9936,"▁1,":9937,"했고,":9938,"▁직접":9939,"▁떨":9940,"문을":9941,"▁페":9942,"▁P":9943,"▁않는":9944,"▁관리":9945,"성(":9946,"▁더욱":9947,"▁맡":9948,"▁그리스":9949,"인을":9950,"시켰":9951,"드는":9952,"제로":9953,"▁임명":9954,"되지":9955,"력이":9956,"주(":9957,"▁깊":9958,"▁느":9959,"▁낮":9960,"▁음악":9961,"▁빠":9962,"격을":9963,"▁이때":9964,"▁널":9965,"▁정보":9966,"전(":9967,"성의":9968,"is":9969,"▁흐":9970,"사회":9971,"하였고,":9972,"하였으며,":9973,"▁증가":9974,"▁희":9975,"도는":9976,"▁이야":9977,"문(":9978,"머니":9979,"하기도":9980,"▁러":9981,"지(":9982,"▁기본":9983,"물이":9984,"▁위에":9985,"조의":9986,"▁이와":9987,"▁비교":9988,"이를":9989,"▁종교":9990,"출처":9991,"▁해당":9992,"▁흔":9993,"났다.\n":9994,"▁옥":9995,"군의":9996,"▁등과":9997,"수의":9998,"▁받았다.\n":9999,"냈다.\n":10000,"▁운영":10001,"부에":10002,"원(":10003,"▁우리나라":10004,"▁30":10005,"▁건설":10006,"수를":10007,"▁상태":10008,"렸다.\n":10009,"습니다.\n":10010,"으므로":10011,"▁자료":10012,"한다":10013,"▁이해":10014,"▁차지":10015,"▁브":10016,"▁높은":10017,"적이":10018,"▁원출처":10019,"▁189":10020,"▁바로":10021,"관은":10022,"수가":10023,"어진":10024,"되었으며,":10025,"활동":10026,"▁떠":10027,"▁수행":10028,"학자":10029,"으면":10030,"▁양식":10031,"▁제3":10032,"▁12월":10033,"로,":10034,".5":10035,"▁종류":10036,"▁형식":10037,"▁있고":10038,"▁혹":10039,"▁국내":10040,"사에":10041,"▁3월":10042,"과의":10043,"정(":10044,"원으로":10045,"▁기업":10046,"▁4월":10047,"장(":10048,"임을":10049,"▁벽":10050,"▁지나":10051,"되었고,":10052,"면에":10053,"▁I":10054,"▁팔":10055,"▁보고":10056,"▁지배":10057,"▁패":10058,"명,":10059,"통령":10060,"▁늘":10061,"치를":10062,"▁\"":10063,"니아":10064,"▁뛰":10065,"▁구분":10066,"정에":10067,"▁D":10068,"체로":10069,"▁오늘":10070,"▁곡":10071,"제가":10072,"자(":10073,"▁이미":10074,"▁인정":10075,"▁녹":10076,"치는":10077,"요.\n":10078,"부(":10079,"종의":10080,"▁기준":10081,"▁마을":10082,"관리":10083,"▁품":10084,"▁L":10085,"쪽에":10086,"▁1일":10087,"▁격":10088,"▁요구":10089,"주는":10090,"▁않은":10091,"장의":10092,"▁1월":10093,"▁보인다.\n":10094,"하던":10095,"▁밑":10096,"▁쓴":10097,"▁건축":10098,"▁너":10099,"관을":10100,"부는":10101,"리·":10102,"서(":10103,"가지":10104,"생활":10105,"▁나누":10106,"▁참여":10107,"시켜":10108,"▁뉴":10109,"장,":10110,"▁10월":10111,"▁길이":10112,"▁사이에":10113,"▁커":10114,"소를":10115,"원은":10116,"▁>":10117,"계획":10118,"서\n":10119,"▁초기":10120,"▁노래":10121,"되면서":10122,"상으로":10123,"▁일어나":10124,"▁몰":10125,"▁5월":10126,"▁않았다.\n":10127,"▁사건":10128,"▁일으":10129,"▁불교":10130,")이다.\n":10131,"하자":10132,"▁디":10133,"마다":10134,"▁시간":10135,"▁조각":10136,"▁게":10137,"▁잠":10138,"구의":10139,"▁지정":10140,"▁전국":10141,"▁상황":10142,"관계":10143,"르크":10144,"체가":10145,"▁보호":10146,"관(":10147,"▁계획":10148,"▁압":10149,"▁대통령":10150,"▁9월":10151,"▁자기":10152,"▁러시아":10153,"▁과정":10154,"자와":10155,"▁아들":10156,"▁발표":10157,"▁넣":10158,"학적":10159,"▁긴":10160,"▁전문":10161,"▁보통":10162,"기,":10163,"▁월":10164,"▁이런":10165,"▁있어서":10166,"▁혹은":10167,"우스":10168,"상(":10169,"▁높이":10170,"▁않았":10171,"▁내용을":10172,"▁담당":10173,"▁망":10174,"▁이유":10175,"▁혁":10176,"▁법률":10177,"과를":10178,".1":10179,"체를":10180,"전을":10181,"사항":10182,"▁6월":10183,"조선":10184,"▁그런":10185,"▁어려":10186,"▁골":10187,"▁땅":10188,"▁8월":10189,"▁확인":10190,"리스":10191,"▁학교":10192,"갔다.\n":10193,"▁정신":10194,"▁개인":10195,"▁7월":10196,"▁물질":10197,"기술":10198,"▁먼":10199,"▁통일":10200,"장은":10201,"방법":10202,"▁어느":10203,"심을":10204,"▁조선시대":10205,"▁때문이다.\n":10206,"내는":10207,"▁이듬":10208,"▁한편":10209,"▁공동":10210,"관이":10211,"▁때는":10212,"▁군사":10213,"▁인물":10214,"▁여기":10215,"▁널리":10216,"의를":10217,"·「":10218,"▁걸쳐":10219,"대가":10220,"▁나무":10221,"▁간행":10222,"▁응":10223,"어져":10224,"자인":10225,"▁수록":10226,"ic":10227,"▁특별":10228,"▁사람이":10229,"가를":10230,"▁이들":10231,"군(":10232,"부가":10233,"기와":10234,"▁소설":10235,"▁제조":10236,"▁→":10237,"대전":10238,"▁언어":10239,"수(":10240,"▁분포":10241,"▁이것은":10242,"문이":10243,"사·":10244,"▁정확":10245,"▁옮":10246,"어서":10247,"▁추정":10248,"▁갑":10249,"▁설명":10250,"▁각종":10251,"▁키":10252,"▁완전":10253,"▁역할을":10254,"적·":10255,"▁옛":10256,"금을":10257,"산업":10258,"에서의":10259,"제는":10260,"인은":10261,"지,":10262,"도와":10263,"학의":10264,"▁딸":10265,"가의":10266,"도에":10267,"상에":10268,"▁헌":10269,"▁사랑":10270,"▁서식":10271,"at":10272,"장에":10273,"▁분야":10274,"장으로":10275,"▁대신":10276,"〉·":10277,"▁와":10278,"▁혈":10279,"이고,":10280,"▁최고":10281,",000":10282,"상은":10283,"▁세워":10284,"▁이듬해":10285,"▁레":10286,"▁엄":10287,"▁o":10288,"▁경상":10289,"▁겸":10290,"〉·〈":10291,"문과":10292,"▁진행":10293,"지방":10294,"성은":10295,"오는":10296,"인(":10297,"▁에너":10298,"▁기재":10299,"▁자리":10300,"▁낙":10301,"른다.\n":10302,"물은":10303,"역을":10304,"▁결국":10305,"으로부터":10306,"▁풀":10307,"▁플":10308,"신청":10309,"▁있다는":10310,"▁규모":10311,"▁제공":10312,"▁환경":10313,"▁강조":10314,"▁방향":10315,"▁188":10316,"▁예술":10317,"▁움":10318,"▁반대":10319,"시키는":10320,"▁트":10321,"들에":10322,"▁비슷":10323,"리와":10324,"▁가진":10325,"▁오늘날":10326,"위에":10327,"▁주변":10328,"▁등장":10329,"▁역시":10330,"적을":10331,"▁대하여":10332,"사,":10333,"수,":10334,"▁세포":10335,"▁장식":10336,"▁숙":10337,"▁이동":10338,"▁치료":10339,"▁*":10340,"▁될":10341,"성과":10342,"▁시대":10343,"정의":10344,"▁찾아":10345,"계의":10346,"남도":10347,"라도":10348,"▁테":10349,"세의":10350,"▁하지만":10351,"위원회":10352,"▁원래":10353,"규칙":10354,"25":10355,"▁졸":10356,"▁최초의":10357,"지와":10358,"▁출판":10359,"▁지도":10360,"▁덕":10361,"법을":10362,"▁성공":10363,"▁학생":10364,"▁바탕":10365,"▁1.":10366,"▁반응":10367,"▁100":10368,"북도":10369,"등학교":10370,"▁뒤에":10371,"▁탈":10372,"▁25":10373,"공업":10374,"▁어머니":10375,"화의":10376,"▁달리":10377,"명이":10378,"▁계약":10379,"▁농업":10380,"▁전개":10381,"▁찬":10382,"▁국립":10383,"▁현대":10384,"단을":10385,"소가":10386,"▁업무":10387,"시켰다.\n":10388,"▁깨":10389,"▁흥":10390,"▁습":10391,"▁비롯한":10392,"정이":10393,"▁퇴":10394,"▁제품":10395,"▁내려":10396,"le":10397,"사와":10398,"정책":10399,"스로":10400,"▁왜":10401,"선을":10402,"▁E":10403,"▁소장":10404,"▁공포":10405,"▁싸":10406,"▁인해":10407,"▁동시에":10408,"▁훈":10409,"리로":10410,"▁교회":10411,"시설":10412,"▁삶":10413,"▁정책":10414,"이지":10415,"▁강화":10416,"▁미술":10417,"탈리아":10418,"구려":10419,"▁인도":10420,"▁of":10421,"▁가르":10422,"과는":10423,"제(":10424,"비스":10425,"대는":10426,"▁기초":10427,"▁휴":10428,"▁쌓":10429,"▁의하여":10430,"렇게":10431,"▁그녀":10432,"▁없이":10433,"단의":10434,"re":10435,"시킨":10436,"▁헤":10437,")·〈":10438,"▁상당":10439,"▁현실":10440,"▁역임":10441,"km2":10442,"▁같다.\n":10443,"화가":10444,"▁R":10445,"▁행동":10446,"▁두고":10447,"▁t":10448,"▁11월":10449,"▁이론":10450,"▁탐":10451,"▁어린":10452,"경제":10453,"▁출신":10454,"it":10455,"▁과거":10456,"▁썼":10457,"▁활용":10458,"▁갖추":10459,"▁쉽":10460,"리,":10461,"세를":10462,"였던":10463,"▁가족":10464,"구를":10465,"▁자동":10466,"▁나타난":10467,"점을":10468,"▁이름을":10469,"20":10470,"성에":10471,"▁시작했다.\n":10472,"mm":10473,"▁공급":10474,"▁많다.\n":10475,"간에":10476,"▁d":10477,"원에":10478,"이란":10479,"없이":10480,"▁띠":10481,"▁핵":10482,"군이":10483,"▁등은":10484,"▁발행":10485,"▁사항":10486,"학과":10487,"▁마련":10488,"▁울":10489,"움을":10490,"째,":10491,"▁이들은":10492,"▁기타":10493,"▁칼":10494,"▁따른":10495,"▁186":10496,"보다는":10497,"▁착":10498,"형의":10499,"▁경향":10500,"▁규정":10501,"▁2월":10502,"▁빛":10503,"비를":10504,"▁법령":10505,"▁공격":10506,"▁파악":10507,"▁외국":10508,"▁근대":10509,"▁겨":10510,"▁명칭":10511,"▁졸업":10512,"▁해안":10513,"▁개념":10514,"▁점차":10515,"▁북한":10516,"▁있도록":10517,"▁자는":10518,"만을":10519,"▁상대":10520,"10":10521,"▁가까":10522,"▁제외":10523,"▁전기":10524,"▁따르":10525,"▁하나의":10526,"▁이탈리아":10527,"▁G":10528,"▁대표적인":10529,"▁클":10530,"▁고구려":10531,"▁남쪽":10532,"▁주민":10533,"▁성격":10534,"▁결합":10535,"▁움직":10536,"▁전해":10537,"계약":10538,"도시":10539,"▁작용":10540,"▁있게":10541,"입니다.\n":10542,"조를":10543,"▁다르":10544,"▁비롯하여":10545,"어를":10546,"학을":10547,"▁만드는":10548,"▁하였":10549,"물관":10550,"▁드러":10551,"▁알려져":10552,"▁H":10553,"▁그대로":10554,"항목":10555,"▁마음":10556,"▁관련서식":10557,"▁촉":10558,"19":10559,"했으며":10560,"▁일반적으로":10561,"리(":10562,"적은":10563,"산을":10564,"세가":10565,"▁있다고":10566,"us":10567,"▁구체":10568,"중에":10569,"▁터":10570,"면을":10571,"해를":10572,"▁유래":10573,"▁사람들이":10574,"▁보아":10575,"▁이상의":10576,"란드":10577,"▁일을":10578,"▁않는다.\n":10579,"▁조사":10580,"▁익":10581,"▁187":10582,"수는":10583,"▁영화":10584,"▁분류":10585,"▁좋은":10586,"▁경우에는":10587,"세기에":10588,"형을":10589,"▁있습니다.\n":10590,"▁한편,":10591,"▁F":10592,"조(":10593,"권의":10594,"▁0":10595,"군은":10596,"▁고대":10597,"호,":10598,"▁것도":10599,"▁받은":10600,"▁확대":10601,"ol":10602,"군을":10603,"?\n":10604,"조가":10605,"쳤다.\n":10606,"▁아이":10607,"200":10608,"적이고":10609,"(大":10610,"▁지구":10611,"▁밖":10612,"촬영":10613,"▁비판":10614,"▁다음과":10615,"규모":10616,"전에":10617,"면의":10618,"▁통합":10619,"신(":10620,"▁2.":10621,"▁성장":10622,"▁잔":10623,"▁놀":10624,"개발":10625,"자들이":10626,"지에서":10627,"식이":10628,"▁개혁":10629,"el":10630,"ra":10631,"▁흑":10632,"인,":10633,"▁태양":10634,"▁먼저":10635,"번째":10636,"▁건물":10637,"전쟁":10638,"▁유전":10639,"문의":10640,"▁대부분의":10641,"산의":10642,"다.”":10643,"▁그를":10644,"▁부르":10645,"금의":10646,"▁전시":10647,"▁받았":10648,"▁근무":10649,"레스":10650,"tion":10651,"▁듯":10652,"▁믿":10653,"▁벗":10654,"▁대학":10655,"▁24":10656,"▁제시":10657,"▁남북":10658,"▁하고,":10659,"했으나":10660,"대회":10661,"라이":10662,"▁작업":10663,"▁거래":10664,"일에":10665,"하다가":10666,"▁부족":10667,"▁맺":10668,"▁짧":10669,"▁해결":10670,"▁속에":10671,"관의":10672,"서에":10673,"되기":10674,"▁벼":10675,"품을":10676,"경을":10677,"▁수입":10678,"▁때에는":10679,"경(":10680,"인데,":10681,"한다는":10682,"수로":10683,"지막":10684,"호를":10685,"▁개최":10686,"▁사실을":10687,"▁둘러":10688,"ro":10689,"지지":10690,"▁소유":10691,"▁상징":10692,"▁적용":10693,"▁농민":10694,"▁조성":10695,"▁북쪽":10696,"▁편집":10697,"▁BC":10698,"자료":10699,"▁단순":10700,"▁것이었다.\n":10701,"▁묘사":10702,"▁1편,":10703,"▁보면":10704,"신을":10705,"▁유명한":10706,"ch":10707,"조직":10708,"▁지급":10709,"다(":10710,"▁자본":10711,"as":10712,"했는데,":10713,"▁오래":10714,"▁결혼":10715,")」·「":10716,"▁흘":10717,"주를":10718,"▁분석":10719,"불어":10720,"▁술":10721,"기·":10722,"▁그래":10723,"▁둥":10724,"▁즐":10725,"함을":10726,"▁가치":10727,"▁비해":10728,"무늬":10729,"▁촬영":10730,"전의":10731,"▁동쪽":10732,"▁빌":10733,"만이":10734,"▁더불어":10735,"문화재":10736,"프리카":10737,"▁차례":10738,"▁균":10739,"▁개정":10740,"▁관련된":10741,"▁21":10742,"▁하며,":10743,"▁사이의":10744,"소의":10745,"호로":10746,"▁처음으로":10747,"▁것과":10748,"▁스페":10749,"린다.\n":10750,"▁후에":10751,"▁체계":10752,"▁뒷":10753,"비아":10754,"▁N":10755,"▁지속":10756,"▁전투":10757,"▁칠":10758,"▁50":10759,"▁재배":10760,"▁관할":10761,"▁변경":10762,"도교":10763,"▁주는":10764,"....":10765,"렀다.\n":10766,"웠다.\n":10767,"종이":10768,"▁물론":10769,"질을":10770,"▁있는데":10771,"▁미국의":10772,"화(":10773,"▁파견":10774,"▁둔":10775,"량이":10776,"▁경영":10777,"수한":10778,"▁동물":10779,"▁마지막":10780,"▁나누어":10781,"현(":10782,"▁또한,":10783,"cm,":10784,"시간":10785,"▁당시의":10786,"비가":10787,"▁올라":10788,"소,":10789,"▁제4":10790,"▁The":10791,"했고":10792,"▁아름":10793,"▁도로":10794,"▁예를":10795,"▁넓은":10796,"▁비교적":10797,"되고,":10798,"이의":10799,"▁대중":10800,"▁통치":10801,"15":10802,"생산":10803,"▁도입":10804,"▁노력":10805,"~3":10806,"장에서":10807,"▁기간":10808,"▁속에서":10809,"구가":10810,"▁없어":10811,"품의":10812,"▁대체로":10813,"▁흰":10814,"신의":10815,"▁가리":10816,"▁기계":10817,"체는":10818,"▁전자":10819,"식으로":10820,"▁몽":10821,"▁추진":10822,"▁민주":10823,"▁판매":10824,"원,":10825,"준다.\n":10826,"▁의하면":10827,"이에":10828,"▁사람의":10829,"메리카":10830,"서관":10831,"위의":10832,"▁그뒤":10833,"▁23":10834,"대(":10835,"점이":10836,"·사":10837,"▁납":10838,"▁뿌":10839,"▁연주":10840,"▁이루어진":10841,"▁40":10842,"▁편찬":10843,"▁구성항목":10844,"et":10845,"다면":10846,"▁개편":10847,"의(":10848,"▁수출":10849,"▁흡":10850,"▁개의":10851,"들도":10852,"▁활발":10853,"▁스스로":10854,"▁돈":10855,"▁식물":10856,"특별":10857,"▁시행규칙":10858,"▁굴":10859,"계(":10860,"▁근거":10861,"▁첨":10862,"▁처리":10863,"▁탑":10864,"▁통하여":10865,"▁방송":10866,"부와":10867,"음악":10868,"▁최근":10869,"▁자주":10870,"▁분리":10871,"자들은":10872,"▁상호":10873,"▁귀족":10874,"▁인간의":10875,"회사":10876,"▁없었다.\n":10877,"시대의":10878,"노동":10879,"선(":10880,"소설":10881,"▁조건":10882,"▁소재":10883,"▁받고":10884,"자에":10885,"선이":10886,"▁과학":10887,"▁직업":10888,"▁목적으로":10889,"▁사회적":10890,"▁바람":10891,"▁작가":10892,"▁구성되어":10893,"▁이르는":10894,"50":10895,"▁씨":10896,"도,":10897,"'(":10898,"겼다.\n":10899,"서의":10900,"이자":10901,"▁일정한":10902,"▁보다":10903,"▁유형":10904,"▁때까지":10905,"▁있었던":10906,"▁쇠":10907,"시(":10908,"▁죽은":10909,"▁그런데":10910,"구역":10911,"감을":10912,"자에게":10913,"▁경기도":10914,"하려는":10915,"조는":10916,"▁이렇게":10917,"▁징":10918,"아가":10919,"인으로":10920,"회(":10921,"▁서쪽":10922,"▁바뀌":10923,"문에":10924,"▁경험":10925,"▁나온":10926,"장·":10927,"▁이루고":10928,"ing":10929,"어의":10930,"▁제정":10931,")\n":10932,"▁히":10933,"구(":10934,"명은":10935,"▁년":10936,"60":10937,"▁동일":10938,"▁밤":10939,"▁잃":10940,"으면서":10941,"▁산맥":10942,"▁점에서":10943,"상과":10944,"▁본관은":10945,"류의":10946,"실을":10947,"▁때,":10948,"▁폴":10949,"기간":10950,"인과":10951,"그램":10952,"▁화학":10953,"▁이루어져":10954,"▁출토":10955,"▁들어가":10956,"소(":10957,"▁22":10958,".2":10959,"▁있다.":10960,"▁그곳":10961,"물로":10962,"▁이외":10963,"▁그린":10964,"ur":10965,"▁지은":10966,"▁여성":10967,"▁약간":10968,")에게":10969,"▁기관":10970,"▁교통":10971,"나는":10972,"▁되고":10973,"양의":10974,"▁[개":10975,"▁다루":10976,"▁바꾸":10977,"지도":10978,"▁그후":10979,"▁시설":10980,"▁측면":10981,"▁끼":10982,"▁대개":10983,"▁경우가":10984,"들로":10985,"스크":10986,"어로":10987,"▁풍부":10988,"▁지금의":10989,"식의":10990,"▁그룹":10991,"이라고도":10992,"▁전에":10993,")에는":10994,"다른":10995,"장과":10996,"▁서비스":10997,"▁소비":10998,"▁물리":10999,"▁효과":11000,"스가":11001,"위가":11002,"▁기념":11003,"▁갖고":11004,"▁면적":11005,"▁증명":11006,"▁가로":11007,"▁부여":11008,"▁지역의":11009,"기까지":11010,"▁지원":11011,"and":11012,"세에":11013,"▁주도":11014,"▁관찰":11015,"단이":11016,"▁이끌":11017,"▁공부":11018,"▁옷":11019,"▁세계대전":11020,"▁빈도":11021,"▁캐":11022,"안을":11023,"▁성립":11024,"▁평균":11025,"정부":11026,"▁즉,":11027,"▁자동차":11028,"▁덮":11029,"명(":11030,"문은":11031,"키는":11032,"력의":11033,"▁표시":11034,"▁흔히":11035,"조합":11036,"트의":11037,"▁정착":11038,"▁아닌":11039,"호에":11040,"▁관직":11041,"▁관심을":11042,")·이":11043,"▁급제":11044,"▁W":11045,"▁쌀":11046,"▁토지":11047,"예술":11048,"▁서(":11049,"18":11050,"의의":11051,"하의":11052,"▁원칙":11053,"▁해석":11054,"▁후반":11055,"▁새로":11056,"▁곤":11057,"내고":11058,"▁아직":11059,"il":11060,"▁퍼":11061,"조사":11062,"▁중에서":11063,"▁안에":11064,"▁쌍":11065,"▁모습을":11066,"권이":11067,"제에":11068,"천(":11069,"▁그들의":11070,"▁제2차":11071,"▁《":11072,"▁근로":11073,"미술":11074,"▁공업":11075,"▁선거":11076,"▁식민":11077,"롭게":11078,"설]":11079,"▁19세기":11080,"▁배치":11081,"▁완성":11082,"▁[개설]":11083,"이어":11084,"형(":11085,"▁정도로":11086,"인들이":11087,"▁읽":11088,"주로":11089,"▁수용":11090,"▁하늘":11091,"회가":11092,"▁꾸":11093,"계에":11094,"명으로":11095,"°C":11096,"동안":11097,"원과":11098,"▁바다":11099,"화된":11100,"▁활동을":11101,"리지":11102,"생을":11103,"▁전라":11104,"▁제한":11105,"▁없었":11106,"▁것으로,":11107,"▁지역에":11108,"당(":11109,"류를":11110,"화와":11111,"▁있다\n":11112,"▁오른":11113,"▁무엇":11114,"▁이르러":11115,".3":11116,"아서":11117,"화는":11118,"▁그려":11119,"▁이야기":11120,"원에서":11121,"▁31":11122,"▁제도":11123,"▁수상":11124,"스템":11125,"▁흘러":11126,"당의":11127,"〉(18":11128,"하여,":11129,"▁완전히":11130,"낸다.\n":11131,"▁자신이":11132,"▁되었고,":11133,"색의":11134,"▁작곡":11135,"▁쉽게":11136,"했을":11137,"▁유사":11138,"▁감소":11139,"이었던":11140,"▁푸":11141,"족의":11142,"▁실험":11143,"▁임진":11144,"·이":11145,"▁사람은":11146,"부령":11147,"형으로":11148,"회는":11149,"교의":11150,"하고자":11151,"성,":11152,"▁공간":11153,"▁특정":11154,"▁일어":11155,"13":11156,"▁▶":11157,"▁폐지":11158,"▁시민":11159,"라고도":11160,"신청서,":11161,"▁짓":11162,"일자":11163,"12":11164,"법은":11165,"수록":11166,"▁교황":11167,"과정":11168,"되며,":11169,"▁여름":11170,"▁형태로":11171,"▁좌우":11172,"▁칭":11173,"▁휘":11174,"▁주목":11175,"동의":11176,"▁수준":11177,"▁뿐만":11178,"개월":11179,"▁소속":11180,"▁참가":11181,"~4":11182,"기업":11183,"▁28":11184,"르게":11185,"부로":11186,"식은":11187,"▁있기":11188,"분을":11189,"▁아무":11190,"▁구별":11191,"0년에":11192,"m,":11193,"▁관광":11194,"(199":11195,"▁K":11196,"▁콘":11197,"왕의":11198,"치고":11199,"▁주의":11200,"▁연합":11201,"▁적극":11202,"▁낭":11203,"▁공연":11204,"▁세우":11205,"un":11206,"▁기후":11207,"▁실제":11208,"동이":11209,"▁유리":11210,"스터":11211,"▁본래":11212,"보고":11213,"6년(":11214,"▁억":11215,"런던":11216,"▁기반":11217,"▁있지":11218,"▁보내":11219,"▁척":11220,"르고":11221,"산·":11222,"행을":11223,"삼국":11224,"▁전반":11225,"▁중국의":11226,"면은":11227,"서로":11228,"▁자세":11229,"▁뚜":11230,"국이":11231,"▁이른":11232,"▁26":11233,"▁곳에":11234,"▁옮겨":11235,"종(":11236,"▁지냈다.\n":11237,"▁세운":11238,"▁얼굴":11239,"▁좁":11240,"▁소련":11241,"▁하지":11242,"▁명의":11243,"▁케":11244,"상,":11245,"▁번역":11246,"▁끌":11247,"▁내용은":11248,"▁상업":11249,"▁수가":11250,"▁지닌":11251,"▁정리":11252,"▁촬영\n":11253,"▁책임":11254,"▁지니":11255,"▁영토":11256,"▁2,":11257,"주가":11258,"▁낮은":11259,"▁않다.\n":11260,"▁집단":11261,"▁기능을":11262,"법에":11263,"▁일찍":11264,"▁관계를":11265,"▁무덤":11266,"▁작품은":11267,"멤버":11268,"비의":11269,"환경":11270,"▁말을":11271,"00년":11272,"▁살아":11273,"▁뛰어난":11274,"▁옆":11275,"고를":11276,"과학":11277,"▁안정":11278,"▁알려진":11279,"어는":11280,"호(":11281,"▁전달":11282,"▁아버지는":11283,"▁낳":11284,"이트":11285,"▁가져":11286,"었으며,":11287,"지게":11288,"호는":11289,"▁해외":11290,"4년(":11291,"▁지휘":11292,"▁배경":11293,"▁봄":11294,"▁보이는":11295,"▁분명":11296,"▁임금":11297,"법(":11298,"▁경기":11299,"▁사용하는":11300,"도·":11301,"러운":11302,"▁185":11303,"▁수록되어":11304,"려는":11305,"비(":11306,"▁이룬":11307,"om":11308,"국을":11309,"▁수립":11310,"▁민원":11311,"▁집중":11312,"개정":11313,"뿐만":11314,"▁붉":11315,"▁티":11316,"▁사망":11317,"▁가는":11318,"▁개칭":11319,"▁서울특별":11320,"▁있으나":11321,"▁27":11322,"~6":11323,"▁O":11324,"정보":11325,"체에":11326,"▁오스트":11327,"▁프로그램":11328,"▁털":11329,"▁생긴":11330,"m)·":11331,"▁일본의":11332,"식(":11333,"▁일이":11334,"▁못한":11335,"▁기존":11336,"스(":11337,"▁호는":11338,"▁정치적":11339,"▁슬":11340,"▁1년":11341,"▁건강":11342,"▁빼":11343,"석을":11344,"▁근처":11345,"시의":11346,"▁대륙":11347,"▁발굴":11348,"로서의":11349,"▁안전":11350,"기에는":11351,"이,":11352,"적으로는":11353,"0년(":11354,"▁맛":11355,"량을":11356,"▁위해서는":11357,"▁대해서는":11358,"·고":11359,"적(":11360,"▁가정":11361,"▁제5":11362,"▁나머":11363,"▁갈라":11364,"론을":11365,"▁프로필":11366,"량의":11367,"석(":11368,"▁사상":11369,"▁the":11370,"~8":11371,"▁밖에":11372,"▁일정":11373,"▁원자":11374,"▁런던":11375,"군에":11376,"색을":11377,"▁영국의":11378,"▁듣":11379,"중앙":11380,"▁반영":11381,"▁위해서":11382,"면이":11383,"▁목표":11384,"▁이용하여":11385,".0":11386,"합니다.\n":11387,"▁나타난다.\n":11388,"▁사람을":11389,"▁충청":11390,"75":11391,"드시":11392,"왜란":11393,"▁노출":11394,"▁밝혀":11395,"▁괴":11396,"본.":11397,"▁일제":11398,"▁즉위":11399,")인":11400,"자들의":11401,"▁한다는":11402,"▁그래서":11403,"▁깊은":11404,"▁엘":11405,"되기도":11406,"소는":11407,"▁끝에":11408,"었고,":11409,"▁추정된다.\n":11410,"~5":11411,"▁남부":11412,"▁편입":11413,"스를":11414,"▁묻":11415,"책.":11416,"▁184":11417,"되었는데,":11418,"▁능력":11419,"▁바탕으로":11420,"▁아름다":11421,"가로":11422,"권은":11423,"업무":11424,"▁마찬":11425,"▁선출":11426,"▁저항":11427,"가지로":11428,"연합":11429,"파의":11430,"▁거주":11431,"▁뇌":11432,"▁이로":11433,"이로":11434,"▁때에":11435,"▁문제를":11436,"▁쿠":11437,"▁계승":11438,"▁배우":11439,"▁체결":11440,"일보":11441,"▁지지":11442,"관으로":11443,"류가":11444,"▁아주":11445,"▁인식":11446,"▁목적":11447,"▁겪":11448,"▁제6":11449,"▁나라의":11450,"▁비슷한":11451,".8":11452,"보살":11453,"▁신설":11454,"▁강력":11455,"▁거두":11456,"▁겨울":11457,"당한":11458,"자리":11459,"16":11460,"층의":11461,"▁신앙":11462,"▁183":11463,"▁기록한":11464,"▁훈련":11465,"▁파괴":11466,"▁임진왜란":11467,"▁왼":11468,"하는데":11469,"▁점령":11470,"톨릭":11471,"▁신고":11472,"▁본격":11473,"▁얼마":11474,"1년(":11475,"하에":11476,"▁모여":11477,"▁실패":11478,"▁채택":11479,"·대":11480,"▁,":11481,"▁죄":11482,"가(":11483,"▁보존":11484,"ri":11485,"와의":11486,"▁하기":11487,"▁반드시":11488,"시키고":11489,"▁서울특별시":11490,"8년에":11491,"▁않아":11492,"▁설계":11493,"▁금속":11494,"▁국가의":11495,"▁모양의":11496,"▁무역":11497,"▁획":11498,"▁이래":11499,"▁이익":11500,"▁외교":11501,"▁3년":11502,"▁혁명":11503,"▁액":11504,"구에":11505,"화에":11506,"▁경계":11507,"많은":11508,"▁샤":11509,"가가":11510,"▁넘어":11511,"▁읍":11512,"▁제거":11513,"▁연안":11514,"0년대에":11515,"▁그리스도교":11516,"ed":11517,"·『":11518,"구는":11519,"이기도":11520,"조판":11521,"▁참고":11522,"▁니":11523,"방송":11524,"▁사람들은":11525,"▁확보":11526,"▁2년":11527,"▁부산":11528,"〉의":11529,"인들의":11530,"▁제출":11531,"▁정보를":11532,"별로":11533,"▁공산":11534,"▁되었으며,":11535,"▁과정에서":11536,"23":11537,"6년에":11538,"▁흙":11539,"비는":11540,"os":11541,"서가":11542,"정은":11543,"▁요청":11544,"주고":11545,"건을":11546,"설(":11547,"학·":11548,"▁광복":11549,"나라의":11550,"서식,":11551,"▁뜻을":11552,"▁p":11553,"국은":11554,"록(":11555,"스와":11556,"약을":11557,"▁일어난":11558,"▁어떻":11559,"▁알아":11560,"▁뻗":11561,"▁가격":11562,"▁[서식":11563,"▁변천":11564,"기능":11565,"리적":11566,"위로":11567,"했다는":11568,"▁유일":11569,"▁행사":11570,"ation":11571,"〉를":11572,"▁대상":11573,"▁정상":11574,")이라":11575,"▁블":11576,"소에":11577,"컴퓨":11578,"▁경쟁":11579,"▁매년":11580,"종은":11581,"▁건너":11582,"박물관":11583,"▁하며":11584,"▁신청":11585,"〉에":11586,"▁등에서":11587,"▁문서\n":11588,"령을":11589,"▁위험":11590,")·김":11591,"2년에":11592,"법의":11593,"▁사는":11594,"▁사라":11595,"▁건립":11596,"니,":11597,"용을":11598,"▁공공":11599,"▁여겨":11600,"▁종합":11601,"컴퓨터":11602,"14":11603,"▁펼":11604,"▁수많은":11605,"고종":11606,"위는":11607,"있는":11608,"▁때의":11609,"▁J":11610,"려고":11611,"수·":11612,"▁전환":11613,"로서,":11614,"▁떨어":11615,"▁젊":11616,"세는":11617,"인들은":11618,"진(":11619,"▁도덕":11620,"되자":11621,"은행":11622,"▁문서를":11623,"거래":11624,"부,":11625,"상태":11626,"스탄":11627,"슬람":11628,"▁있음":11629,"▁준비":11630,"▁강의":11631,"▁섞":11632,"개혁":11633,"질이":11634,"▁삼국":11635,"사에서":11636,"▁붉은":11637,"▁것에":11638,"▁재정":11639,"▁백제":11640,"▁짐":11641,"선의":11642,"▁기여":11643,"▁정도의":11644,"70":11645,"▁정의":11646,"인에":11647,"재를":11648,"▁어떻게":11649,"am":11650,"단으로":11651,"량은":11652,"리에서":11653,"▁견해":11654,"2년(":11655,"7년에":11656,"단에":11657,"액을":11658,"역에":11659,"▁지적":11660,"▁가톨릭":11661,"▁차이가":11662,"▁이집":11663,"▁등이다.\n":11664,"되었던":11665,"▁자리잡":11666,"▁만나":11667,"8년(":11668,"▁경주":11669,"경에":11670,"▁중간":11671,"▁반란":11672,"물에":11673,"정치":11674,"한국":11675,"▁부모":11676,"▁벼슬":11677,"▁빨":11678,"왕이":11679,"▁고용":11680,"▁3.":11681,"▁평양":11682,"▁방법을":11683,"▁대상으로":11684,"▁융":11685,"하지만":11686,"회에":11687,"▁수는":11688,"▁가서":11689,"▁2개":11690,"▁왕의":11691,"이다.":11692,"▁통한":11693,"계는":11694,"방의":11695,"복지":11696,"용으로":11697,"하나":11698,"▁신분":11699,"되었으나":11700,"▁받아들":11701,"이스":11702,"▁고전":11703,"▁상품":11704,"▁못했다.\n":11705,"▁솟":11706,"▁콜":11707,"다란":11708,"▁사무":11709,"▁열매":11710,"▁갈등":11711,"▁나타나는":11712,"km2,":11713,"트로":11714,"▁1)":11715,"▁아시아":11716,"▁다만":11717,"▁합니다.\n":11718,"▁썼다.\n":11719,"▁끊":11720,"▁기원":11721,"▁독특":11722,"▁둘러싸":11723,"일,":11724,"▁소개":11725,"▁실려":11726,"까지의":11727,"▁몇몇":11728,"80":11729,"랐다.\n":11730,"▁결성":11731,"▁좀":11732,"면·":11733,"소와":11734,"되었고":11735,"9년에":11736,"▁춘":11737,"▁혜":11738,"▁훨":11739,"▁종사":11740,"▁설정":11741,"전문":11742,"화,":11743,"▁부근":11744,"▁권1":11745,"▁금융":11746,"▁높아":11747,"름이":11748,"리기":11749,"소로":11750,"아버":11751,"▁불가":11752,"▁재판":11753,"부에서":11754,"▁1개":11755,"ent":11756,"원·":11757,"▁시대의":11758,"▁강한":11759,"▁불구":11760,"▁재료":11761,"▁잉":11762,"▁60":11763,"운동을":11764,"▁최초로":11765,"▁뉴욕":11766,"공(":11767,"시는":11768,"7년(":11769,"세포":11770,"▁위원":11771,"▁작품을":11772,"▁잇":11773,"▁대립":11774,"▁부정":11775,"▁지역을":11776,"▁그것은":11777,"대장":11778,"▁뚜렷":11779,"▁s":11780,"▁멀":11781,"고(":11782,"법이":11783,"▁2개의":11784,"▁이름이":11785,"▁웅":11786,"동에":11787,"유의":11788,"전이":11789,"직을":11790,"▁그들은":11791,"▁생겨":11792,"부터는":11793,"▁되고,":11794,"▁훨씬":11795,"과로":11796,"학(":11797,"▁저술":11798,"▁의미를":11799,"≫·":11800,"어들":11801,"▁대규모":11802,"▁감독":11803,"▁만들었다.\n":11804,"▁주고":11805,"로를":11806,"움이":11807,"▁성격을":11808,"▁복잡":11809,"1년에":11810,"〉(":11811,"〉,":11812,"어가":11813,"▁선택":11814,"▁확립":11815,"30":11816,"가,":11817,"동을":11818,"지대":11819,"▁가입":11820,"▁기울":11821,"▁신문":11822,"▁않을":11823,"▁이름은":11824,"5년에":11825,"차례":11826,"호.":11827,"▁왕이":11828,"나라에":11829,"▁힘을":11830,"≫·≪":11831,"▁전설":11832,"▁서양":11833,"▁실제로":11834,"▁재직":11835,"79":11836,"사람":11837,"▁이슬람":11838,"▁것이라고":11839,"▁조정":11840,"▁만큼":11841,"▁후기":11842,")라는":11843,"조참":11844,"▁의식":11845,"▁경우도":11846,"▁창건":11847,"인데":11848,"▁m":11849,"라마":11850,"▁이주":11851,"▁민간":11852,"▁살펴":11853,"▁지방의":11854,"봉(":11855,"▁29":11856,"▁유대":11857,"▁제1차":11858,"력은":11859,"▁전후":11860,"과에":11861,"단은":11862,"무덤":11863,"이기":11864,"전은":11865,"▁그밖에":11866,"▁보는":11867,"▁마침":11868,"▁간의":11869,"▁항목":11870,"4년에":11871,"ter":11872,"산에":11873,"적이다.\n":11874,"▁주식":11875,"▁실현":11876,"▁받는":11877,"▁고려시대":11878,"사건":11879,"지·":11880,"▁투자":11881,"]에":11882,"▁아르":11883,"▁데서":11884,"▁이것을":11885,"회에서":11886,"▁의사":11887,"▁오르":11888,"▁이것이":11889,"〉(1":11890,"같은":11891,"▁어렵":11892,"▁거부":11893,"되었다가":11894,"▁탁":11895,"가에":11896,"▁시기에":11897,"▁관심":11898,"em":11899,"~9":11900,"성부":11901,"▁나오는":11902,"▁되면":11903,"▁형태의":11904,"~2":11905,"통신":11906,"▁경우에":11907,"▁중심지":11908,"시를":11909,"인에게":11910,"▁아프리카":11911,"▁농촌":11912,"▁에너지":11913,"류는":11914,"▁그에":11915,"▁생성":11916,"▁장악":11917,"▁선정":11918,"선거":11919,"▁생물":11920,"▁과정을":11921,"▁현재의":11922,"아시아":11923,"ac":11924,"▁c":11925,"분의":11926,"했다고":11927,"▁그렇":11928,"▁기둥":11929,"▁시는":11930,"▁인한":11931,"▁무렵":11932,".7":11933,"영(":11934,"▁중의":11935,"▁달라":11936,"5년(":11937,"업을":11938,"▁새겨":11939,"▁효율":11940,"▁떠나":11941,"군과":11942,"트는":11943,"▁여기에":11944,"▁추구":11945,"▁정부의":11946,"▁물을":11947,"▁유명하다.\n":11948,"▁슈":11949,"▁시험":11950,"▁다소":11951,"▁경우는":11952,"〉는":11953,"계가":11954,"▁의견":11955,"▁작성하는":11956,"·수":11957,"▁보물":11958,"▁의무":11959,"▁서술":11960,"▁임시":11961,"▁맹":11962,"▁옹":11963,"가락":11964,"▁회의":11965,"▁마찬가지로":11966,"▁시스템":11967,"▁조금":11968,"▁공사":11969,"▁사람들의":11970,"▁필사":11971,"3년에":11972,"로의":11973,"아의":11974,"▁한국의":11975,"▁생기":11976,"▁불리":11977,"▁못하고":11978,"▁처음에는":11979,"▁머리":11980,"▁V":11981,"산,":11982,"자기":11983,"▁권한":11984,"▁외에":11985,">·":11986,"’,":11987,"교를":11988,"▁절차":11989,"당이":11990,"신이":11991,"어야":11992,"▁그것을":11993,"▁흡수":11994,"40":11995,"BC":11996,"위(":11997,"▁유행":11998,"▁젊은":11999,">·<":12000,"보(":12001,"요\n":12002,"▁개선":12003,"▁귀국":12004,"▁통과":12005,"▁배출":12006,"종을":12007,"해졌다.\n":12008,"▁아마":12009,"▁천연":12010,"▁좋아":12011,"▁다스":12012,")도":12013,"▁을":12014,"관에":12015,"었던":12016,"제도":12017,"▁공화":12018,"▁멸":12019,"▁숭":12020,"교(":12021,"령(":12022,"▁유적":12023,"▁꼬":12024,"▁고향":12025,"▁모아":12026,"▁통제":12027,"▁진출":12028,"▁율":12029,"동(":12030,"수와":12031,"▁맥":12032,"단체":12033,"▁전형":12034,"▁시도":12035,"▁중에":12036,"▁인쇄":12037,"▁생명":12038,"▁은행":12039,"▁윌":12040,"성으로":12041,"▁수요":12042,"▁속하는":12043,"▁내용이":12044,"·전":12045,"함에":12046,")이며,":12047,"▁저서":12048,"▁충분":12049,"▁업무를":12050,"당을":12051,"생의":12052,"제품":12053,"▁지역에서":12054,"▁가을":12055,"▁주인":12056,"▁회복":12057,"▁20세기":12058,"▁문제가":12059,"▁짧은":12060,"·가":12061,"▁워":12062,"▁칸":12063,"〉을":12064,"물과":12065,"▁시기":12066,"▁2편,":12067,"▁공식":12068,"▁하천":12069,"~7":12070,"병을":12071,"▁있으므로":12072,"▁인터":12073,"▁십":12074,"우(":12075,"주식":12076,"▁제주":12077,"▁상세":12078,"▁여행":12079,"▁그러한":12080,".4":12081,"▁셋":12082,"석은":12083,"학에":12084,".6":12085,"▁항상":12086,"▁만들어진":12087,"유한":12088,"▁것,":12089,"활동을":12090,"▁스페인":12091,"센터":12092,"▁지점":12093,"▁대구":12094,"▁대사":12095,"▁바이":12096,"▁써":12097,"▁책은":12098,"9년(":12099,"보험":12100,"▁유배":12101,"▁나는":12102,"▁반복":12103,"▁금지":12104,"▁아니라,":12105,"▁U":12106,"해진":12107,"▁불러":12108,"까지는":12109,"·유":12110,"드의":12111,"력과":12112,"론(":12113,"제와":12114,"책을":12115,"해지":12116,"히려":12117,"▁전혀":12118,"▁바닥":12119,"▁비롯해":12120,"▁침입":12121,"▁가까운":12122,"'라는":12123,"름을":12124,"▁객":12125,"조에":12126,"▁있음을":12127,"▁보관":12128,"▁이르기까지":12129,"▁생활을":12130,"혔다.\n":12131,"▁수술":12132,"▁합격":12133,"▁창작":12134,"書)":12135,"▁이처럼":12136,"▁시장":12137,"▁개설":12138,"▁특수":12139,"▁159":12140,"'을":12141,"▁독자":12142,"▁179":12143,"▁이른바":12144,"um":12145,"▁그밖":12146,"▁고정":12147,"▁죽음":12148,"▁앙":12149,"명한":12150,"모양":12151,"▁자라":12152,"id":12153,"▁숨":12154,"라스":12155,"문으로":12156,"재(":12157,"▁있지만":12158,"▁페르":12159,"▁욕":12160,"래의":12161,"성·":12162,"질의":12163,"▁제국":12164,"▁보수":12165,"▁대한민":12166,"산화":12167,"우는":12168,"▁시의":12169,"▁경력":12170,"▁의료":12171,"▁남서":12172,"▁뒤,":12173,"▁80":12174,"▁회사":12175,"▁이룬다.\n":12176,"▁불구하고":12177,"’을":12178,"과,":12179,"역의":12180,"통을":12181,"하는데,":12182,"▁부록":12183,"▁근본":12184,"▁절대":12185,"▁침략":12186,"',":12187,"관계를":12188,"산이":12189,"시가":12190,"일을":12191,"▁문헌":12192,"▁하나로":12193,"▁붙여":12194,"론의":12195,"원도":12196,"장각":12197,"정,":12198,"▁지난":12199,"▁보급":12200,"▁우선":12201,"▁5년":12202,"▁일상":12203,"▁오히려":12204,"▁확실":12205,"가루":12206,"스럽":12207,"업이":12208,"▁한다고":12209,"▁현상":12210,"▁북부":12211,"▁사회의":12212,"▁콩":12213,"신라":12214,"▁대동":12215,"▁하는데,":12216,"▁나머지":12217,"▁냉":12218,"▁뽑":12219,"▁연극":12220,"되었으며":12221,"▁잘못":12222,"▁허가":12223,"▁사진":12224,"교통":12225,"구나":12226,"단한":12227,"더라도":12228,"치가":12229,"▁만한":12230,"▁어머니는":12231,"▁제목":12232,"▁지니고":12233,"%),":12234,"▁훌":12235,"설을":12236,"▁시가":12237,"▁그러므로":12238,"▁측정":12239,"으로서의":12240,"▁커다란":12241,"▁독특한":12242,"▁펴":12243,"경의":12244,"구로":12245,"기계":12246,"민족":12247,"서도":12248,"▁늘어":12249,"▁쇼":12250,"암(":12251,"▁나오":12252,"▁명확":12253,"방(":12254,"▁아내":12255,"·보":12256,"▁세웠다.\n":12257,"▁화가":12258,"▁사항을":12259,"교도":12260,"생애":12261,"자원":12262,"▁이중":12263,"▁불과":12264,"▁지역은":12265,"36":12266,"▁유교":12267,"▁많아":12268,"덜란드":12269,"전히":12270,"말에":12271,"산물":12272,"의가":12273,"▁화려":12274,"▁포함한":12275,"평양":12276,"▁출발":12277,"▁청동":12278,"▁프랑스의":12279,"안의":12280,"지인":12281,"편의":12282,"▁1만":12283,"▁비로":12284,"▁후손":12285,"주의의":12286,"어와":12287,"왕(":12288,"증을":12289,"▁18세기":12290,"▁체포":12291,")이라는":12292,"ad":12293,"방을":12294,"색으로":12295,"▁시집":12296,"하였는데,":12297,"▁고객":12298,"▁평가]":12299,"▁핵심":12300,"▁시를":12301,"▁2014":12302,"▁까":12303,"석이":12304,"선조":12305,"았던":12306,"▁부처":12307,"▁내에":12308,"▁표준":12309,")라고":12310,"▁지하":12311,"▁나가":12312,"▁실천":12313,"▁단계":12314,"▁하나는":12315,"▁승려":12316,"▁종류의":12317,"국(":12318,"숙종":12319,"주었다.\n":12320,"추어":12321,"행정":12322,"▁왕실":12323,"▁벗어나":12324,"▁컴퓨터":12325,"당은":12326,"·서":12327,"스,":12328,"▁사고":12329,"▁얻어":12330,"▁보여준다.\n":12331,"▁우주":12332,"에게는":12333,"▁재위":12334,"▁160":12335,"%를":12336,"ul":12337,"르트":12338,"화로":12339,"·중":12340,"▁해서":12341,"▁명시":12342,"▁180":12343,"▁증거":12344,"▁나타내는":12345,"▁옛날":12346,"▁끓":12347,"▁춤":12348,"받은":12349,"▁신체":12350,"▁3,":12351,"▁통신":12352,"▁아니다.\n":12353,"▁벨":12354,"들이다.\n":12355,"한다고":12356,"했지만":12357,"▁지어":12358,"▁등록":12359,"▁주었다.\n":12360,"▁고분":12361,"▁적절":12362,"▁북서":12363,"▁준다.\n":12364,"▁특징을":12365,"83":12366,"료를":12367,"시킬":12368,"유(":12369,"▁선언":12370,"▁너무":12371,"일의":12372,"▁발간":12373,"▁내외":12374,"▁건국":12375,"▁확장":12376,"▁검은":12377,"▁마침내":12378,"받았다.\n":12379,"학생":12380,"▁구멍":12381,"▁장애":12382,"▁단체":12383,"▁학습":12384,"▁글을":12385,"▁변화를":12386,"%,":12387,"▁윗":12388,"각을":12389,"단(":12390,"전과":12391,"조로":12392,"▁당사":12393,"▁두었다.\n":12394,"▁이용한":12395,"▁친구":12396,"▁정부는":12397,"민의":12398,"보는":12399,"이한":12400,"▁부담":12401,"▁동맹":12402,"▁역사적":12403,"▁훌륭":12404,"17":12405,"사무":12406,"세계":12407,"형이":12408,"히는":12409,"▁내부":12410,"학교로":12411,"▁따르면":12412,"▁획득":12413,"국가":12414,"음이":12415,"화·":12416,"▁주거":12417,"▁경제적":12418,"개가":12419,"부르크":12420,"자들을":12421,"▁위로":12422,"▁방문":12423,"▁계곡":12424,"▁점이":12425,"주의를":12426,"▁황제":12427,".”":12428,"하였던":12429,"▁계산":12430,"권,":12431,"자본":12432,"▁[의의":12433,"▁민속":12434,"▁학문":12435,"2)":12436,"동은":12437,"스타":12438,"판을":12439,"▁정복":12440,"▁자치":12441,"▁하면":12442,"▁영양":12443,"▁2014년":12444,"▁전통적인":12445,"’의":12446,"선은":12447,"속도로":12448,"스코":12449,"시기":12450,"▁인사":12451,"▁구릉":12452,"▁연방":12453,"▁적은":12454,"▁문화재":12455,"▁[의의와":12456,"▁엔":12457,"마을":12458,"▁조약":12459,"▁지금은":12460,"ia":12461,"▁앉":12462,"나다":12463,"시코":12464,"▁제9":12465,"▁하면서":12466,"▁어깨":12467,"▁솟아":12468,"▁섭":12469,"수에":12470,"유를":12471,"했기":12472,"▁인디":12473,"▁오랜":12474,"▁이루는":12475,"▁달려":12476,"▁광주":12477,"▁여기서":12478,"'의":12479,"’는":12480,"어,":12481,"하므로":12482,"▁그중":12483,"▁서부":12484,"▁광고":12485,"▁촉진":12486,"▁알고":12487,"▁시작한":12488,"기념":12489,"동,":12490,"페라":12491,"▁70":12492,"▁1945년":12493,"ph":12494,"되며":12495,"목(":12496,"어·":12497,"트를":12498,"▁것처럼":12499,"▁제기":12500,"▁평화":12501,"▁떨어져":12502,"▁쉬":12503,"면으로":12504,"번호":12505,"협회":12506,"화한":12507,"▁정기":12508,"▁신경":12509,"▁무늬":12510,")한":12511,"스러운":12512,"텔레":12513,"▁가슴":12514,"▁비율":12515,"▁감염":12516,"▁살고":12517,"▁특히,":12518,"▁이유로":12519,"기고":12520,"니다.":12521,"받아":12522,"부·":12523,"하다고":12524,"▁있으나,":12525,"▁북동":12526,"▁철도":12527,"▁앞에":12528,"로가":12529,"지면":12530,"현황":12531,"▁하다.\n":12532,"▁문서":12533,"▁해당하는":12534,"27":12535,"▁and":12536,"▁조절":12537,"00m":12538,"▁계급":12539,"▁입학":12540,"▁창조":12541,"▁규장각":12542,"생활을":12543,"▁겹":12544,"▁웨":12545,"대사":12546,"로로":12547,"자치":12548,"▁한글":12549,"▁보장":12550,"▁해양":12551,"▁쓰는":12552,"▁판단":12553,"▁강력한":12554,"비,":12555,"제,":12556,"▁하루":12557,"▁금강":12558,"▁1946년":12559,"하려고":12560,"동맹":12561,"력에":12562,"자·":12563,"▁영업":12564,"▁방식":12565,"63":12566,"▁중세":12567,"▁부른다.\n":12568,"▁만주":12569,"▁오랫":12570,"▁활약":12571,"▁갖춘":12572,"▁형태를":12573,"▁경향이":12574,"11":12575,"▁굽":12576,"되면":12577,"받침":12578,"평균":12579,")」은":12580,"oc":12581,"▁꿈":12582,"▁왔":12583,"산은":12584,"▁소득":12585,"▁타원":12586,"▁오랫동안":12587,"간다.\n":12588,"이지만":12589,"평가":12590,"후(":12591,"▁수집":12592,"▁유물":12593,"▁없고":12594,"▁봉안":12595,"▁독일의":12596,"류와":12597,"아메리카":12598,"▁창설":12599,"▁규칙":12600,"▁178":12601,"사항]":12602,"NA":12603,"▁흉":12604,"개를":12605,"고등학교":12606,"▁제7":12607,"▁내의":12608,"▁죽었다.\n":12609,"▁가능한":12610,"▁둥근":12611,"▁식민지":12612,"▁찰":12613,"디오":12614,"망을":12615,"사상":12616,"중한":12617,"▁대비":12618,"▁전파":12619,"▁중반":12620,"▁어려운":12621,"거리":12622,"관,":12623,"세(":12624,"일랜드":12625,"해의":12626,"▁마치":12627,"▁(→":12628,"▁떨어진":12629,"색이다.\n":12630,"▁부동":12631,"▁여전히":12632,"▁평안":12633,"▁앞으로":12634,"▁능력을":12635,"▁소장되어":12636,"▁꼽":12637,"▁주택":12638,"▁저작":12639,"▁백성":12640,"ag":12641,"▁꼭":12642,"▁쓸":12643,"문,":12644,"영조":12645,"▁수학":12646,"▁보편":12647,"▁그리하여":12648,"주의적":12649,"▁방법으로":12650,"▁주인공":12651,"▁횡":12652,"권에":12653,"법개정":12654,"씨(":12655,"▁있지만,":12656,"▁것인":12657,"▁[생애":12658,"▁크고":12659,"▁위치한":12660,"▁너비":12661,"▁갖추고":12662,"▁붕":12663,"동・":12664,"만의":12665,"멕시코":12666,"▁이사":12667,"▁언제":12668,"▁엄격":12669,"▁역임하였다.\n":12670,"▁숲":12671,"〉은":12672,"르의":12673,"리학":12674,"문·":12675,".9":12676,"24":12677,"▁팽":12678,"국에":12679,"▁지내":12680,"▁원인":12681,"▁나타내":12682,"▁아버지":12683,"▁인터넷":12684,"형태":12685,"▁마르":12686,"▁점점":12687,"(198":12688,"나무·":12689,"림픽":12690,"부장":12691,"시행":12692,"▁전략":12693,"▁자극":12694,"▁개인의":12695,"까지도":12696,"▁초기의":12697,"▁잡저":12698,"▁머물":12699,"▁놓고":12700,"산과":12701,"서와":12702,"이(":12703,"해도":12704,"▁이들의":12705,"▁대성":12706,"▁비록":12707,"▁2000년":12708,"▁제외한":12709,"67":12710,"▁빙":12711,"복을":12712,"양을":12713,"유럽":12714,"이와":12715,"▁한반":12716,"▁나아가":12717,"▁일반적인":12718,"▁네덜란드":12719,"▁찍":12720,"됨에":12721,"리오":12722,"소·":12723,"▁동부":12724,"▁물이":12725,"▁넣어":12726,"이·":12727,"호),":12728,"▁물에":12729,"▁이곳에":12730,"▁경상북도":12731,"공산":12732,"다\"":12733,"▁상승":12734,"▁합성":12735,"▁항공":12736,"65":12737,"▁르":12738,"석기":12739,"소년":12740,"에서부터":12741,"▁장기":12742,"▁최대":12743,"구와":12744,"면에는":12745,"사적":12746,"석의":12747,"지기":12748,"▁선교":12749,"문과에":12750,"모를":12751,"소리":12752,"▁수정":12753,"▁초대":12754,"▁사용한다.\n":12755,"▁권리":12756,"▁경우,":12757,"시대에":12758,"▁취임":12759,"▁느낌":12760,"▁젖":12761,"지면서":12762,"▁부르는":12763,"▁소송":12764,"▁표기":12765,"▁이르렀다.\n":12766,"▁대한민국":12767,"od":12768,"▁헨":12769,"드러":12770,"비에":12771,"▁파리":12772,"▁속한다.\n":12773,"거나,":12774,"▁브라":12775,"▁특별한":12776,"(C":12777,"ig":12778,"th":12779,"리엄":12780,"문관":12781,"하다는":12782,"▁일대":12783,"▁6·":12784,"▁돌아와":12785,"인도":12786,"▁사찰":12787,"▁35":12788,"▁쪽":12789,"같이":12790,"구조":12791,"민주":12792,"었는데,":12793,"작용":12794,"▁시대에":12795,"▁비난":12796,"▁182":12797,"▁검사":12798,"▁주장했다.\n":12799,"64":12800,"드로":12801,"연맹":12802,"▁3개":12803,"▁2008년":12804,"화학":12805,"▁가공":12806,"하여야":12807,"▁양반":12808,"레일":12809,"범위":12810,"중의":12811,"▁국토":12812,"▁행위":12813,"▁타고":12814,"▁1980년":12815,"▁1914년":12816,"▁답":12817,"▁느끼":12818,"드를":12819,"마디":12820,"어도":12821,"▁시인":12822,"▁불리는":12823,"▁직후":12824,"▁가장자":12825,"시키기":12826,"▁우리나라의":12827,"28":12828,"▁맨":12829,"다리":12830,"독립":12831,"▁이하":12832,"▁공작":12833,"▁후에는":12834,"▁말았다.\n":12835,"▁양성":12836,"▁작품이다.\n":12837,"▁혼란":12838,"▁정확한":12839,"▁유형문화재":12840,"구,":12841,"지금의":12842,"편이":12843,"▁아우":12844,"▁유통":12845,"▁도서관":12846,"▁선박":12847,"▁실질":12848,"학교를":12849,"▁갖는":12850,"▁신라의":12851,")이라고":12852,"▁틀":12853,"드리":12854,"양(":12855,"했다\n":12856,"▁이제":12857,"▁그때":12858,"▁지냈":12859,"▁보유":12860,"▁교환":12861,"▁따로":12862,"▁사용한":12863,"▁태어":12864,"▁흐르는":12865,"▁동양":12866,"▁소리":12867,"▁강제":12868,"69":12869,"▁짜":12870,"글랜드":12871,"▁대항":12872,"▁의존":12873,"▁타법개정":12874,"▁멤버":12875,"▁대응":12876,"▁지리":12877,"▁일치":12878,"(15":12879,"▁점을":12880,"▁학술":12881,"▁1963년":12882,"▁일찍이":12883,"▁왔다.\n":12884,"』에":12885,"명과":12886,"안(":12887,"했으나,":12888,"▁조지":12889,"▁합병":12890,"▁내용의":12891,"▁기록되어":12892,"▁혼합":12893,"▁깊이":12894,"te":12895,"자나":12896,"▁모래":12897,"▁방사":12898,"▁출생":12899,"▁구성된":12900,"▁승격":12901,"▁교육을":12902,"▁방향으로":12903,"▁듣고":12904,"국민":12905,"리게":12906,"법으로":12907,"쟁을":12908,"▁것이라":12909,"▁정교":12910,"▁아미":12911,"▁유기":12912,"▁동남":12913,"▁창립":12914,"▁의해서":12915,"▁올려":12916,"▁변천]":12917,"▁조합":12918,"▁인수":12919,"▁단백":12920,"▁스타":12921,"▁변화가":12922,"▁풍부한":12923,"▁굵":12924,"▁레이":12925,"」·「":12926,"르몬":12927,"신은":12928,"이사":12929,"▁그해":12930,"▁관해":12931,"▁노예":12932,"▁심한":12933,"▁아름다운":12934,"가와":12935,"법,":12936,"스테":12937,"조건":12938,"▁평야":12939,"▁충돌":12940,"▁대부분이":12941,"▁접근":12942,"▁결과를":12943,"▁다르다.\n":12944,"▁이집트":12945,"▁깔":12946,"연을":12947,"▁불안":12948,"▁5개":12949,"▁정확히":12950,"'이라는":12951,"▁값":12952,"각한":12953,"동과":12954,"스키":12955,"적,":12956,"▁만에":12957,"되어야":12958,"▁ᆞ":12959,"주·":12960,"▁시절":12961,"▁자란":12962,"▁2)":12963,"▁나와":12964,"▁바깥":12965,"▁물러":12966,"▁이전의":12967,"▁그곳에서":12968,"▁굳":12969,"히고":12970,"▁자격":12971,"▁도움을":12972,"▁거대한":12973,"▁없을":12974,"▁기록이":12975,"▁층":12976,"▁사회주의":12977,"~19":12978,"21":12979,"▁솔":12980,"과·":12981,"만큼":12982,"면(":12983,"칸의":12984,"▁내에서":12985,"▁사람들을":12986,"▁들어서":12987,"▁그녀는":12988,"▁오래된":12989,"▁자리잡고":12990,"시로":12991,"워드":12992,"▁이루어졌다.\n":12993,"▁이름으로":12994,"▁서식\n":12995,"▁de":12996,"2,":12997,"35":12998,"동으로":12999,"소송":13000,"▁기온":13001,")」는":13002,"▁기존의":13003,"▁핀":13004,"간을":13005,"이므로":13006,"▁1970년":13007,"▁l":13008,"▁지붕":13009,"▁등도":13010,"▁프리":13011,"▁집행":13012,"〉에서":13013,"』의":13014,"일(":13015,"▁건조":13016,"▁법칙":13017,"▁할아버":13018,"ir":13019,"례를":13020,"종류":13021,"▁보건":13022,"▁해야":13023,"▁알렉":13024,"▁목판":13025,"▁그림을":13026,"▁단순한":13027,"대와":13028,"어(":13029,"▁비중":13030,"▁소관":13031,"▁오페라":13032,"▁현존":13033,"▁회원":13034,"▁삼각":13035,"▁박물관":13036,"48":13037,"og":13038,"▁덧":13039,"국으로":13040,"분이":13041,"▁5일":13042,"▁활동사항]":13043,"▁하여금":13044,"▁계획을":13045,"▁인디언":13046,"'를":13047,"68":13048,"곡(":13049,"면에서":13050,"미를":13051,"발전":13052,"스에":13053,"연(":13054,"▁여자":13055,"리아의":13056,"▁있었고,":13057,"▁1990년":13058,"▁승진":13059,"▁들면":13060,"▁범죄":13061,"(제":13062,"▁f":13063,"과(":13064,"방이":13065,"사학":13066,"운영":13067,"하였으나":13068,"▁연속":13069,"▁4,":13070,"되었을":13071,"▁각기":13072,"▁허용":13073,"와는":13074,"주에":13075,"▁그에게":13076,"▁공통":13077,"▁사이에서":13078,"▁번째":13079,"▁돌아가":13080,")라":13081,"스티":13082,"으니":13083,"접한":13084,"▁한때":13085,"▁마케":13086,"▁추측":13087,"▁음식":13088,"▁17세기":13089,"▁일부를":13090,"▁부분을":13091,"▁전형적인":13092,"33":13093,"··":13094,"▁겉":13095,"▁삭":13096,"감이":13097,"관과":13098,"됩니다.\n":13099,"학급":13100,"▁1/":13101,"▁가마":13102,"▁비밀":13103,"▁합의":13104,"▁극복":13105,"정과":13106,"화되어":13107,"▁고등":13108,"▁둘째":13109,"▁기준으로":13110,"▁홀":13111,"공화":13112,"관찰":13113,"력으로":13114,"이오":13115,"재로":13116,"프로":13117,"▁나폴":13118,"▁추가":13119,"▁150":13120,"▁언급":13121,"▁드라마":13122,"됨으로써":13123,"시험":13124,"▁사냥":13125,"▁주교":13126,"▁함경":13127,"▁2007년":13128,"▁보여주는":13129,"▁윌리엄":13130,"련의":13131,"물,":13132,"부처":13133,"에만":13134,"▁지름":13135,"▁원시":13136,"▁재산":13137,"▁사용되는":13138,"▁농경":13139,"▁언론":13140,"▁이끌고":13141,"]의":13142,"도서관":13143,"조·":13144,"▁곳에서":13145,"▁꽃이":13146,"▁구체적인":13147,"]·":13148,"ie":13149,"▁깃":13150,"점으로":13151,"졌으며,":13152,"▁기획":13153,"▁제안":13154,"▁아울":13155,"▁때부터":13156,"▁영역":13157,"▁바라":13158,"45":13159,"▁묵":13160,"각(":13161,"▁생태":13162,"▁분위":13163,"▁받지":13164,"▁길을":13165,"▁통해서":13166,"▁1998년":13167,"▁질환":13168,"▁임명되었다.\n":13169,"과대학":13170,"대,":13171,"도에서":13172,"스턴":13173,"▁이념":13174,"▁경찰":13175,"▁도착":13176,"▁어떠":13177,"▁남동":13178,"▁형성된":13179,"적의":13180,"▁관측":13181,"▁세웠":13182,"▁계절":13183,"▁제10":13184,"▁만들고":13185,"▁발견된":13186,"▁동일한":13187,"▁뻗어":13188,"▁엿":13189,"▁멕시코":13190,"었다고":13191,"▁위협":13192,"▁조작":13193,"▁개화":13194,"▁181":13195,"▁채권":13196,"대학교에서":13197,"▁관계가":13198,"▁상당히":13199,"(鄭":13200,"29":13201,"결과":13202,"우리":13203,"▁것이며,":13204,"▁길이는":13205,"▁177":13206,"▁상당한":13207,"▁아울러":13208,"▁지키":13209,"▁관장":13210,"▁산출":13211,"▁잎은":13212,"▁몽골":13213,"▁펼쳐":13214,"▁유치":13215,"▁책을":13216,"▁139":13217,"▁그밖의":13218,"▁뼈":13219,"▁기생":13220,"▁차지하고":13221,"▁최고의":13222,"▁털이":13223,"37":13224,"청년":13225,"▁대형":13226,"▁정면":13227,"▁발휘":13228,"▁도움이":13229,"▁체험":13230,"▁들어와":13231,"▁접촉":13232,"▁넣고":13233,"▁헌법":13234,"▁혈액":13235,"족은":13236,"주교":13237,"▁2009년":13238,"▁의미한다.\n":13239,"▁생각된다.\n":13240,"▁민족의":13241,"▁루이":13242,"▁갔":13243,"령이":13244,"조).":13245,"▁대리":13246,"▁보살":13247,"▁서정":13248,"지역의":13249,"▁빼앗":13250,"이터":13251,"▁정당":13252,"▁중시":13253,"▁구축":13254,"▁상속":13255,"▁또,":13256,"▁계열":13257,"▁저장":13258,"▁현재는":13259,"리우스":13260,"목을":13261,"증,":13262,"파(":13263,"▁아카":13264,"▁다섯":13265,"▁사용하여":13266,"▁필리":13267,"▁이후의":13268,"▁철학":13269,"▁1919년":13270,"ha":13271,"반응":13272,"▁제8":13273,"▁약속":13274,"▁6·25":13275,"▁묶":13276,"기온":13277,"없는":13278,"위,":13279,"▁총독":13280,"감(":13281,"류(":13282,"운(":13283,"의로":13284,"중(":13285,"▁화산":13286,"▁168":13287,"39":13288,"▁늦":13289,"끄는":13290,"이드":13291,"작품":13292,"킨다.\n":13293,"▁분열":13294,"▁적합":13295,"▁쓰고":13296,"▁1995년":13297,"▁1948년":13298,"▁발전을":13299,"▁와서":13300,"▁근무하는":13301,"],":13302,"강(":13303,"두에":13304,"조정":13305,"▁제문":13306,"00여":13307,"▁재무":13308,"하기로":13309,"▁화합":13310,"▁운반":13311,"▁호흡":13312,"▁철저":13313,"(200":13314,"m)":13315,"색이":13316,"▁다룬":13317,"▁해방":13318,"▁사용되었다.\n":13319,"▁간주":13320,"▁하나이다.\n":13321,"▁베네":13322,"▁만든다.\n":13323,"▁(1":13324,"서에는":13325,"졌고,":13326,"확인":13327,"▁남녀":13328,"▁화폐":13329,"▁변형":13330,"▁훌륭한":13331,"·공":13332,"었을":13333,"일본":13334,"자연":13335,"조와":13336,"▁자가":13337,"▁중단":13338,"▁인적":13339,"▁하게":13340,"다가,":13341,"만한":13342,"산맥":13343,"생물":13344,"치지":13345,"▁대기":13346,"▁주어":13347,"▁나중에":13348,"▁되자":13349,"▁합류":13350,"▁연구에":13351,"▁이루어진다.\n":13352,"▁1949년":13353,"▁탄핵":13354,"▁이곳에서":13355,"·부":13356,"·아":13357,"▁싶":13358,"간(":13359,"공을":13360,"포츠":13361,"▁때문에,":13362,"▁열린":13363,"▁잡아":13364,"▁2010년":13365,"▁특징이다.\n":13366,"▁빠져":13367,"▁삶의":13368,"▁캐나다":13369,"·소":13370,"·장":13371,"받고":13372,"연원":13373,"후의":13374,"▁가야":13375,"▁성균":13376,"▁광범위":13377,"▁길이가":13378,"▁연구를":13379,"▁1997년":13380,"▁통일신라":13381,"▁유일한":13382,"·정":13383,"선으로":13384,"▁보조":13385,"▁세종":13386,"▁외부":13387,"▁크기는":13388,"▁피해":13389,"▁1973년":13390,"▁1970년대":13391,"▁색깔":13392,"▁폴란드":13393,"st":13394,"연한":13395,"제도를":13396,"▁일시":13397,"▁일종의":13398,"▁위의":13399,"▁어디":13400,"▁남한":13401,"▁받게":13402,"▁이전에":13403,"▁이유는":13404,"▁곤충":13405,"山,":13406,"강의":13407,"교회":13408,"동물":13409,"주[":13410,"포(":13411,"▁주관":13412,"▁보이고":13413,"▁방어":13414,"▁단편":13415,")이고,":13416,"▁스트":13417,"▁맡았다.\n":13418,"니는":13419,"스카":13420,"이게":13421,"하에서":13422,"하자,":13423,"▁권2":13424,"▁속의":13425,"▁발생하는":13426,"▁뛰어나":13427,"≫에":13428,"▁족":13429,"기준":13430,"방향":13431,"베르":13432,"소에서":13433,"체(":13434,"▁관하여":13435,"▁신의":13436,"▁32":13437,"'는":13438,"’를":13439,"고려":13440,"목으로":13441,"▁한자":13442,"▁3편,":13443,"▁말이":13444,"▁청년":13445,"▁1960년대":13446,"▁가능성이":13447,"▁제외하고":13448,"경영":13449,"석으로":13450,"실,":13451,"쟁이":13452,"해져":13453,"했는데":13454,"▁자녀":13455,"▁비용":13456,")』·『":13457,"▁구체적으로":13458,"락을":13459,"통의":13460,"▁정비":13461,"▁자금":13462,"▁인천":13463,"▁오염":13464,"▁반면에":13465,"▁단지":13466,"▁15일":13467,"▁축조":13468,"시킨다.\n":13469,"46":13470,"’라는":13471,"대상":13472,"명에":13473,"여자":13474,"치의":13475,"해안":13476,"▁사마":13477,"▁지표":13478,"▁공을":13479,"▁개별":13480,"▁[연원":13481,"▁시작하여":13482,"▁걸친":13483,"▁그것이":13484,"까?\n":13485,"음의":13486,"자로서":13487,"질은":13488,"▁마음을":13489,"▁무너":13490,"▁분해":13491,"선에":13492,"▁기대":13493,"▁시각":13494,"▁자리를":13495,"▁경작":13496,"▁동북":13497,"▁방언":13498,"▁받을":13499,"보를":13500,"소한":13501,"신문":13502,"이크":13503,"치게":13504,"해군":13505,"▁동서":13506,"▁세부":13507,"▁방지":13508,"▁우승":13509,"▁포기":13510,"▁그녀의":13511,"49":13512,"op":13513,"▁이른다.\n":13514,"▁제도를":13515,"▁동원":13516,"▁기술을":13517,"무(":13518,"쪽의":13519,"▁대체":13520,"▁원형":13521,"▁소금":13522,"▁문인":13523,"▁생기는":13524,"▁말했다.\n":13525,"▁탄생":13526,"▁밑에":13527,"례(":13528,"스토":13529,"이면":13530,"틀랜드":13531,"파는":13532,"▁이온":13533,"▁부속":13534,")·정":13535,"▁선수":13536,"▁작품으로":13537,"▁효과를":13538,"▁질병":13539,"▁정부가":13540,"▁모양으로":13541,"세와":13542,"▁원산":13543,"▁4년":13544,"▁달러":13545,"▁시작되었다.\n":13546,"▁일본에":13547,"▁자신을":13548,"▁석유":13549,"▁1992년":13550,"▁카르":13551,"▁딸이다.\n":13552,"▁숫":13553,"듯이":13554,"율을":13555,"이상":13556,"인조":13557,"하를":13558,"호가":13559,"▁38":13560,"▁초상":13561,"▁돌려":13562,"▁이용해":13563,"▁논의":13564,"▁섬유":13565,"▁이곳은":13566,"▁경상남도":13567,"......":13568,"내의":13569,"인지":13570,"▁사적":13571,"▁구매":13572,"▁내륙":13573,"▁두어":13574,"▁뒤에는":13575,"▁활성":13576,"▁1996년":13577,"▁벌어":13578,"▁운동을":13579,"곡을":13580,"당에":13581,"란이":13582,"시장":13583,"자루":13584,"▁끝나":13585,"▁1920년":13586,"▁설치되어":13587,"▁혼인":13588,"▁구조를":13589,"▁자료가":13590,"▁깨끗":13591,"▁쫓":13592,"놓은":13593,"선,":13594,"식과":13595,"체와":13596,"▁45":13597,"▁말은":13598,"▁163":13599,"▁식품":13600,"▁2006년":13601,"▁뛰어":13602,"·오":13603,"學校":13604,"공학":13605,"량,":13606,"식품":13607,"왕은":13608,"▁90":13609,"▁글씨":13610,"▁어떠한":13611,"▁a":13612,"조례":13613,"집(":13614,"화되었다.\n":13615,"▁않으면":13616,"▁강원도":13617,"▁초기에":13618,"▁스승":13619,"▁기업의":13620,"▁잉글랜드":13621,"령으로":13622,"론은":13623,"식물":13624,"액,":13625,"일이":13626,"▁보험":13627,"▁단일":13628,"▁출현":13629,"▁스코":13630,"▁책의":13631,"▁검토":13632,")이나":13633,"73":13634,"▁덴":13635,"갈색":13636,"류,":13637,"면과":13638,"석탑":13639,"하다\n":13640,"▁수리":13641,"▁대상이":13642,"▁교수":13643,"▁외에도":13644,"하면서도":13645,"▁1950년":13646,"▁들고":13647,"▁알렉산":13648,"ec":13649,"ot":13650,"▁궤":13651,"차를":13652,"▁사육":13653,"▁지켜":13654,"▁가난":13655,"▁않게":13656,"▁반면":13657,"▁뒤를":13658,"▁참석":13659,"▁국민의":13660,"▁멀리":13661,"(朴":13662,"m의":13663,"목은":13664,"신으로":13665,"▁공장":13666,"▁특정한":13667,"▁사용된다.\n":13668,"▁매장":13669,"▁『삼국":13670,"▁끝난":13671,"▁별지":13672,"▁쳐":13673,"동·":13674,"요?\n":13675,"▁조리":13676,"▁두루":13677,"▁두드러":13678,"▁사람에게":13679,"▁태어나":13680,"▁이후에는":13681,"▁작품의":13682,"법과":13683,"사기":13684,"조약":13685,"했지만,":13686,"▁수필":13687,"▁저지":13688,"▁비로소":13689,"느님":13690,"등록":13691,"양이":13692,"▁가지는":13693,"▁인용":13694,"▁반도":13695,"▁살해":13696,"▁창간":13697,"▁쓰인다.\n":13698,"▁끝이":13699,"▁붙어":13700,"▁잠시":13701,"▁짐작":13702,"(A":13703,"요,":13704,"자들":13705,"천의":13706,"켰다.\n":13707,"▁기사":13708,"▁배열":13709,"▁권리를":13710,"▁편리":13711,"▁이후에":13712,"▁있었는데,":13713,"▁베르":13714,"▁덩":13715,"▁띤":13716,"▁팀":13717,"세종":13718,"트가":13719,"혁명":13720,"▁위에서":13721,"▁34":13722,"▁최종":13723,"▁복원":13724,"▁담고":13725,"▁b":13726,"▁던":13727,"보통":13728,"시와":13729,"치아":13730,"▁계기로":13731,"▁있었으며,":13732,"▁취급":13733,"▁가치가":13734,"▁의하면,":13735,"건축":13736,"겠다는":13737,"받는":13738,"소득":13739,"자유":13740,"훈련":13741,"▁관념":13742,"▁33":13743,"▁예방":13744,"학교(":13745,"▁취득":13746,"▁일부가":13747,"▁부분이":13748,"로(":13749,"속의":13750,"예)":13751,"족이":13752,"▁인공":13753,"▁도모":13754,"▁우수":13755,"▁설득":13756,"▁회전":13757,"▁돈을":13758,"22":13759,"59":13760,"니가":13761,"산군":13762,"종,":13763,"▁10년":13764,"▁제수":13765,"▁36":13766,"▁세력":13767,"▁우리의":13768,"▁얻을":13769,"▁1,000":13770,"▁상황을":13771,"·제":13772,"대문":13773,"본(":13774,"실록":13775,"크리":13776,"파를":13777,"편을":13778,"▁이기":13779,"▁수송":13780,"▁수밖에":13781,"▁시에는":13782,"▁3·":13783,"▁않도록":13784,"▁특성":13785,"▁심리":13786,"▁못하는":13787,"▁1980년대":13788,"▁라틴":13789,"▁퇴적":13790,"▁좁은":13791,"▁껍":13792,"점은":13793,"힌다.\n":13794,"▁채무":13795,"▁서비스를":13796,"▁세우고":13797,"43":13798,"▁in":13799,"계급":13800,"었고":13801,"절을":13802,"차가":13803,"▁삼아":13804,"▁31일":13805,"53":13806,"▁밭":13807,"층이":13808,"표,":13809,"하(":13810,"▁동생":13811,"▁내지":13812,"▁현황":13813,"▁예상":13814,"▁추천":13815,"▁16세기":13816,"ist":13817,"▁증명서\n":13818,"▁부록으로":13819,"스럽게":13820,"78":13821,"내역":13822,"느냐":13823,"독교":13824,"평(":13825,"하지만,":13826,"▁지형":13827,"▁전사":13828,"▁신성":13829,"▁무기":13830,"▁당나라":13831,"▁민중":13832,"▁조선의":13833,"▁10일":13834,"▁내용으로":13835,"▁일어나는":13836,"▁일으키":13837,"▁소관부처":13838,"단과":13839,"종교":13840,"▁동쪽으로":13841,"▁비행":13842,"▁재능":13843,"▁[시행":13844,"▁감각":13845,"▁시작하였다.\n":13846,"▁복합":13847,"서식\n":13848,"▁행정서식,":13849,"▁행정서식\n":13850,"▁시행일자":13851,"tic":13852,"▁양식입니다.\n":13853,"▁서식명":13854,"▁규모가":13855,"▁국립중앙":13856,"▁공포일자":13857,"▁공포번호":13858,"▁법령명":13859,"▁법령종류":13860,"▁개정방법":13861,"▁민원신청서,":13862,"▁민원서식,":13863,"▁신고서,":13864,"▁허가신청서,":13865,"▁붕괴":13866,"▁별지서식":13867,"개,":13868,"거운":13869,"고는":13870,"총독":13871,"했다.":13872,"▁가담":13873,"▁정토":13874,"▁나서":13875,"▁의병":13876,"▁공정":13877,"▁역사를":13878,"▁포도":13879,"▁카를":13880,"보다도":13881,"▁다음해":13882,"▁베이":13883,"▁급격":13884,"▁했던":13885,"▁살펴보":13886,"상에서":13887,"았고,":13888,"▁가치를":13889,"▁아일랜드":13890,"▁거듭":13891,"▁길게":13892,"▁쓰이는":13893,"▁올랐다.\n":13894,"▁얻은":13895,"▁씻":13896,"고의":13897,"해(":13898,"▁대전":13899,"▁유입":13900,"▁생애":13901,"▁만족":13902,"▁요소":13903,"▁II":13904,"텔레비":13905,"'로":13906,"26":13907,"군사":13908,"선과":13909,"표를":13910,"▁인하여":13911,"▁명예":13912,"▁스위":13913,"▁집안":13914,"▁146":13915,"▁1962년":13916,"▁행정구역":13917,"지역에":13918,"▁홈":13919,"본으로":13920,"사지":13921,"심이":13922,"았으며,":13923,"직한":13924,"▁일련의":13925,"▁나뉘":13926,"▁해도":13927,"▁158":13928,"▁사업을":13929,"결을":13930,"기에서":13931,"임이":13932,"체육":13933,"▁동지":13934,"▁구입":13935,"▁국회의":13936,"▁성직":13937,"▁안에서":13938,"▁매매":13939,"▁필수":13940,"▁확산":13941,"▁1975년":13942,"▁되었고":13943,"▁1960년":13944,"▁서(書)":13945,"▁택":13946,"만으로":13947,"법인":13948,"이아":13949,"▁있으면":13950,"▁시조":13951,"▁경성":13952,"▁되지":13953,"▁연한":13954,"▁세력을":13955,"▁내세":13956,"▁장비":13957,"▁명성을":13958,"▁석탄":13959,"▁연결되어":13960,"▁뿌리":13961,"’로":13962,"▁앨":13963,"▁얇":13964,"▁읊":13965,"초에":13966,"▁그와":13967,"▁시호는":13968,"▁부인":13969,"▁권력을":13970,"▁편성":13971,"▁있어야":13972,"▁분포한다.\n":13973,"▁방향을":13974,"연히":13975,"주와":13976,"▁사유":13977,"▁소멸":13978,"▁신학":13979,"▁변호":13980,"▁사용할":13981,"▁편이다.\n":13982,"▁흐름":13983,"▁제조업":13984,"▁갔다.\n":13985,"금융":13986,"디아":13987,"밀한":13988,"사회의":13989,"식에":13990,"패를":13991,"▁대장":13992,"▁공기":13993,"▁서쪽으로":13994,"▁소작":13995,"▁남쪽으로":13996,"▁삶을":13997,"▁맑":13998,"관·":13999,"번호,":14000,"시,":14001,"점,":14002,"▁시에":14003,"▁상실":14004,"▁하이":14005,"▁타이":14006,"운동의":14007,"▁위치를":14008,"▁쇠퇴":14009,"58":14010,"▁뚫":14011,"공사":14012,"무역":14013,"불교":14014,"프랑":14015,"▁제국의":14016,"▁다녀":14017,"▁관상":14018,"▁상하":14019,"▁국방":14020,"▁둘째,":14021,"▁첫째,":14022,"▁정확하게":14023,"▁정책을":14024,")에서는":14025,"’은":14026,"광역":14027,"권과":14028,"리자":14029,"재의":14030,"정으로":14031,"천·":14032,"회와":14033,"▁전한다.\n":14034,"▁서서":14035,"▁선호":14036,"▁반면,":14037,"▁합쳐":14038,"▁시작된":14039,"▁176":14040,"▁세워진":14041,"▁웃":14042,"記)":14043,"직(":14044,"▁권3":14045,"▁나타낸다.\n":14046,"▁164":14047,"▁이어서":14048,"▁급속":14049,"▁받아들이":14050,"▁맡아":14051,"▁받아들여":14052,"간이":14053,"서란":14054,"점에서":14055,"진을":14056,"티아":14057,"희(":14058,"▁제대로":14059,"▁교훈":14060,"▁피아":14061,"▁140":14062,"▁앞서":14063,"▁1910년":14064,"소재":14065,"피아":14066,"▁후보":14067,"▁진단":14068,"▁162":14069,"▁1989년":14070,"ers":14071,"▁풍속":14072,"▁늘어나":14073,"朝鮮":14074,"구·":14075,"데미":14076,"서·":14077,"작업":14078,"함과":14079,"▁이들을":14080,"▁지향":14081,"▁한정":14082,"▁중엽":14083,"▁내는":14084,"▁사람들":14085,"▁점이다.\n":14086,"▁입고":14087,"▁책임을":14088,"▁갖게":14089,"▁망명":14090,"▁스코틀랜드":14091,"77":14092,"속(":14093,"인·":14094,"행(":14095,"▁중에는":14096,"▁때로는":14097,"▁연장":14098,"▁4.":14099,"▁열대":14100,"▁1991년":14101,"▁대부분은":14102,"▁전라남도":14103,"qu":14104,"프트":14105,"▁있으면서":14106,"▁전승":14107,"▁구름":14108,"▁국어":14109,"▁미리":14110,"▁포르":14111,"▁편의":14112,"▁교육기관":14113,"▁발생한":14114,"군으로":14115,"내에":14116,"분야":14117,"위와":14118,"창(":14119,"▁1책.":14120,"▁그들이":14121,"▁지낸":14122,")·사":14123,"▁차별":14124,"▁북쪽으로":14125,"▁간행하였다.\n":14126,"▁유래되었다.\n":14127,"▁복잡한":14128,"렬한":14129,"료로":14130,"청(":14131,"▁보낸":14132,"▁인기를":14133,"▁발원":14134,"▁영어":14135,"▁거느":14136,"▁종종":14137,"▁화강":14138,"▁부분은":14139,"▁잇는":14140,"1,":14141,"44":14142,"만은":14143,"익을":14144,"▁아들이":14145,"▁부임":14146,"▁3일":14147,"▁미루":14148,"▁말하는":14149,"▁일부는":14150,"▁했으나":14151,"▁패배":14152,"▁오스트리아":14153,"▁자란다.\n":14154,"문제":14155,"역(":14156,"였으며,":14157,"통일":14158,"▁가득":14159,"▁전공":14160,"▁부드":14161,"▁세균":14162,"▁국왕":14163,"▁교과":14164,"▁선진":14165,"면서도":14166,"▁형식을":14167,"▁물고":14168,"▁75":14169,"▁회계":14170,"되는데,":14171,"▁1977년":14172,"▁전체적으로":14173,"▁지금까지":14174,"▁어린이":14175,"음(":14176,"인트":14177,"▁방출":14178,"▁채용":14179,"▁발전에":14180,"▁전쟁을":14181,"▁둥글":14182,"/멤버":14183,"▁꾀":14184,"덕왕":14185,"리나":14186,"마루":14187,"▁사례":14188,"▁하느님":14189,"▁강을":14190,"▁특성을":14191,"▁노르":14192,"▁사실상":14193,"▁둘레":14194,"▁뿐이다.\n":14195,"▁그룹/멤버":14196,"ut":14197,"▁씌":14198,"금은":14199,"액은":14200,"테네":14201,"퍼드":14202,"▁이룩":14203,"▁일자리":14204,"▁2차":14205,"▁연대":14206,"▁명을":14207,"▁사람들에게":14208,"▁달성":14209,"▁도시의":14210,"▁유사한":14211,"▁이로써":14212,"▁까닭":14213,"≫의":14214,"▁끈":14215,"▁혐":14216,"경이":14217,"증명":14218,"▁남겼다.\n":14219,"▁강과":14220,"▁물품":14221,"▁근육":14222,"▁새롭게":14223,"▁(예)":14224,"▁특징은":14225,"▁몸을":14226,"▁St":14227,"▁유럽의":14228,"비로":14229,"재판":14230,"침을":14231,"호의":14232,"▁보이지":14233,"▁비극":14234,"▁발레":14235,"▁발문이":14236,"▁남자":14237,"▁4개":14238,"▁빠른":14239,"▁이야기를":14240,"과정을":14241,"론이":14242,"▁제임":14243,"▁보면,":14244,"▁모스크":14245,"▁3)":14246,"▁곳으로":14247,"▁앞에서":14248,"▁2015년":14249,"▁나라를":14250,"▁중앙에":14251,"▁흐르":14252,"▁디자인":14253,"▁시행규칙에":14254,"▁페르시아":14255,"66":14256,"ve":14257,"▁뜨":14258,"강을":14259,"권으로":14260,"세한":14261,"정조":14262,"▁유역":14263,"▁연간":14264,"▁미래":14265,"▁명령":14266,"되었으나,":14267,"▁적응":14268,"▁태어난":14269,"▁1999년":14270,"▁포함되어":14271,"▁땅을":14272,"▁붓":14273,"」,":14274,"담을":14275,"류·":14276,"연의":14277,"증이":14278,"태종":14279,"해가":14280,"▁1차":14281,"▁대외":14282,"▁주제":14283,"▁아랍":14284,"▁연관":14285,"▁성을":14286,"▁해체":14287,"▁물건":14288,"▁크다.\n":14289,"▁토양":14290,"▁1988년":14291,"▁대해서":14292,"강점":14293,"분에":14294,"브리":14295,"트라":14296,"▁제자":14297,"▁세로":14298,"▁없다는":14299,"▁실용":14300,"▁진주":14301,"▁두께":14302,"▁지역으로":14303,"▁크기가":14304,"▁있었으나":14305,"▁얻었다.\n":14306,"▁초기에는":14307,"ell":14308,"▁든":14309,"▁쟁":14310,"각주[":14311,"물질":14312,"색,":14313,"선생":14314,"진흥":14315,"함이":14316,"▁39":14317,"▁생존":14318,"▁실행":14319,"▁스포츠":14320,"▁백작":14321,"▁1947년":14322,"▁향후":14323,"~10":14324,"▁넘는":14325,"▁규모의":14326,"▁듯하다.\n":14327,"▁자세히":14328,"▁삽":14329,"▁튀":14330,"무원":14331,"방에":14332,"산에서":14333,"었으며":14334,"자.\n":14335,"초(":14336,"▁기억":14337,"하였다고":14338,"▁서구":14339,"▁37":14340,"되어,":14341,"▁바르":14342,"▁드물":14343,"▁탄압":14344,"▁필요가":14345,"▁눈에":14346,"▁띠고":14347,"▁J.":14348,"ce":14349,"』·『":14350,"장애":14351,"조,":14352,"▁3개의":14353,"▁개척":14354,"▁도와":14355,"▁안동":14356,"▁군사를":14357,"▁달린":14358,"▁1972년":14359,"▁특별히":14360,"BS":14361,"경찰":14362,"국제":14363,"다,":14364,"리포":14365,"스피":14366,"학은":14367,"▁이행":14368,"▁이끄는":14369,"▁일은":14370,"▁따서":14371,"▁행위를":14372,"▁북아메리카":14373,"▁죽자":14374,"▁2012년":14375,"▁필요로":14376,"▁낮아":14377,"▁노출되는":14378,"▁서울특별시조례":14379,"▁~":14380,"▁헬":14381,"레옹":14382,"류에":14383,"지붕":14384,"포를":14385,"프는":14386,"▁사막":14387,"▁후,":14388,"▁군대를":14389,"▁점검":14390,"▁요새":14391,"▁못하였다.\n":14392,"▁166":14393,"▁1985년":14394,"▁이상이":14395,"▁불교의":14396,"·2":14397,"공동":14398,"묘(":14399,"바닥":14400,"집을":14401,"처리":14402,"치로":14403,"하라":14404,"▁보이":14405,"▁연기":14406,"▁높이는":14407,"▁홍보":14408,"▁응용":14409,"▁만드는법":14410,"▁최근에는":14411,"▁이익을":14412,"주식회":14413,"레일리아":14414,"▁n":14415,"량(":14416,"보호":14417,"신앙":14418,"여래":14419,"음은":14420,"현종":14421,"▁기회를":14422,"▁행해":14423,"▁이용된다.\n":14424,"▁형태는":14425,"▁모양을":14426,"▁보여주고":14427,"▁서(序":14428,"▁일제강점":14429,"▁왼쪽":14430,"▁좀더":14431,"·인":14432,"書院":14433,"농업":14434,"대표":14435,"언(":14436,"제한":14437,"▁수직":14438,"▁않고,":14439,"▁2004년":14440,"▁좋다.\n":14441,"▁차지하는":14442,"▁드러나":14443,"▁불가능":14444,"▁멸망":14445,"▁셰":14446,"▁촌":14447,"각형":14448,"계로":14449,"관광":14450,"교가":14451,"랑이":14452,"전시":14453,"층석탑":14454,"치(":14455,"▁보았다.\n":14456,"▁양식을":14457,"▁면역":14458,"▁에드":14459,"▁날짜":14460,"▁협력":14461,"▁설립되었다.\n":14462,"▁본격적인":14463,"구성":14464,"됐다.\n":14465,"승(":14466,"장비":14467,"평야":14468,"▁이상을":14469,"▁전주":14470,"▁중추":14471,"▁오는":14472,"▁특허":14473,"▁계층":14474,"▁명이":14475,"▁175":14476,"▁각각의":14477,"▁희곡":14478,"▁일어나자":14479,"ion":14480,"▁냄":14481,"▁똑":14482,"▁흩":14483,"경은":14484,"바로":14485,"었다는":14486,"지이다.\n":14487,"회,":14488,"▁가늘":14489,"▁경계를":14490,"▁원리":14491,"▁소리를":14492,"에게서":14493,"▁노란":14494,"▁사람과":14495,"▁약간의":14496,"▁170":14497,"▁있었기":14498,"▁순환":14499,"▁1955년":14500,"▁했으며,":14501,"▁찾아볼":14502,"·김":14503,"말로":14504,"물(":14505,"용(":14506,"천이":14507,"토기":14508,"▁자체":14509,"▁불렀다.\n":14510,"▁현상을":14511,"▁단위":14512,"▁포괄":14513,"▁임대":14514,"▁2005년":14515,"▁벽돌":14516,"국과":14517,"당했다.\n":14518,"라비아":14519,"수도":14520,"실로":14521,"중추":14522,"채를":14523,"해,":14524,"▁수령":14525,"▁보냈다.\n":14526,"▁아메리카":14527,"▁관습":14528,"▁개성":14529,"▁통상":14530,"▁마주":14531,"▁장군":14532,"▁지역이":14533,"▁관련이":14534,"▁꽃은":14535,"▁자료를":14536,"▁쌓아":14537,"61":14538,"▁돋":14539,"길이":14540,"론에":14541,"▁시기의":14542,"▁되면서":14543,"▁소규모":14544,"▁모방":14545,"▁진보":14546,"되었다고":14547,"▁군의":14548,"▁세계의":14549,"▁번식":14550,"▁봉건":14551,"운동에":14552,"▁시간이":14553,"▁충분히":14554,"계,":14555,"기록":14556,"색이고":14557,"영화":14558,"▁동의":14559,"▁서북":14560,"▁또다른":14561,"▁출전":14562,"▁독점":14563,"▁피부":14564,"▁일어났다.\n":14565,"▁화려한":14566,"▁나폴레옹":14567,"▁탕":14568,"▁쪽으로":14569,"각의":14570,"머리":14571,"모가":14572,"사인":14573,"세로":14574,"▁이웃":14575,"▁도망":14576,"▁교역":14577,"▁5)":14578,"▁물건을":14579,"▁출입":14580,"▁피해를":14581,"▁165":14582,"▁1981년":14583,"▁곳곳":14584,"▁곳이":14585,"정책을":14586,"▁밖으로":14587,")로서":14588,"·상":14589,"▁빚":14590,"▁짙":14591,"박한":14592,"투자":14593,"▁자리에":14594,"▁일제의":14595,"▁인근":14596,"▁영웅":14597,"▁종이":14598,"▁조선총독":14599,"▁10여":14600,"▁합리":14601,"▁토지를":14602,"▁1994년":14603,"▁올림픽":14604,"ine":14605,"▁변화에":14606,"(趙":14607,"문에서":14608,"이프":14609,"▁일에":14610,"▁주지":14611,"▁원주":14612,"▁개방":14613,"▁진압":14614,"▁출간":14615,"▁이루어지는":14616,"▁행동을":14617,"▁빛을":14618,"▁헨리":14619,"▁돕":14620,"▁텔레비":14621,"러미":14622,"림의":14623,"송(":14624,"전·":14625,"▁수십":14626,"▁주기":14627,"▁공개":14628,"▁연평균":14629,"▁바위":14630,"▁선발":14631,"▁차이를":14632,"▁회화":14633,"▁172":14634,"▁준공":14635,"▁놓은":14636,"▁첫번째":14637,"▁이외에":14638,"文)":14639,"가인":14640,"나,":14641,"산으로":14642,"술을":14643,"였고,":14644,"장한":14645,"▁대량":14646,"하였고":14647,"하였다는":14648,"▁공헌":14649,"▁비타":14650,"▁하겠":14651,"▁모델":14652,"▁표면":14653,"▁민요":14654,"▁달아":14655,"▁확정":14656,"▁문제는":14657,"▁형식으로":14658,"▁In":14659,"▁오른쪽":14660,"▁둘러싸고":14661,"'라고":14662,"ap":14663,"’이":14664,"▁득":14665,"당과":14666,"반을":14667,"인가":14668,"크의":14669,"▁자손":14670,"▁자원":14671,"▁인민":14672,"▁성벽":14673,"▁따뜻":14674,"▁없애":14675,"▁재건":14676,"▁적이":14677,"▁이루었다.\n":14678,"▁가지가":14679,"▁있어서는":14680,"▁이루어지고":14681,"▁1982년":14682,"▁줄어들":14683,"▁첫째":14684,"▁지정되어":14685,"▁아무런":14686,"▁닦":14687,"법>":14688,"석과":14689,"설은":14690,"씨의":14691,"해방":14692,"▁기상":14693,"▁전망":14694,"▁소년":14695,"▁하는데":14696,"▁폭발":14697,"▁상태를":14698,"▁분야에서":14699,"▁써서":14700,"생이":14701,"안에":14702,"청의":14703,"▁이성":14704,"▁비가":14705,"▁무용":14706,"▁5,":14707,"이나,":14708,"▁처벌":14709,"▁방법은":14710,"▁형식의":14711,"▁플라":14712,"▁규정하고":14713,"▁밖에도":14714,")나":14715,")나라":14716,"심의":14717,"지고,":14718,"토(":14719,"트(":14720,"호와":14721,"▁한쪽":14722,"▁관료":14723,"▁연꽃":14724,"▁교회의":14725,"▁167":14726,"▁중심의":14727,"▁석탑":14728,"▁협의":14729,"▁필요하다.\n":14730,"사업을":14731,"▁몰아":14732,"▁주변의":14733,"▁현존하는":14734,"55":14735,"경기":14736,"계와":14737,"란을":14738,"지원":14739,"향을":14740,"▁2번째":14741,"▁나눌":14742,"▁방식으로":14743,"▁올리":14744,"▁고려의":14745,"지역을":14746,"▁표현한":14747,"47":14748,"山)":14749,"구에서":14750,"성종":14751,"하지는":14752,"▁2만":14753,"▁다리":14754,"▁유도":14755,"하였을":14756,"▁세상을":14757,"▁해발":14758,"▁나타났다.\n":14759,"▁156":14760,"▁내용이다.\n":14761,"▁1993년":14762,"▁놓여":14763,"조참판":14764,"고가":14765,"베이":14766,"통,":14767,"▁지시":14768,"▁중부":14769,"▁어긋":14770,"▁증상":14771,"▁145":14772,"▁1984년":14773,"▁1968년":14774,"▁1961년":14775,"▁연결하는":14776,"▁팽창":14777,"ay":14778,"∼19":14779,"권(":14780,"복(":14781,"어요.\n":14782,"음\n":14783,"정신":14784,"학,":14785,"▁이들이":14786,")·박":14787,"▁문장":14788,"▁1979년":14789,"▁1987년":14790,"▁발견되었다.\n":14791,"▁문학의":14792,"▁기본적인":14793,"▁배경으로":14794,"▁적절한":14795,"▁멜":14796,"국·":14797,"▁가축":14798,"▁목적을":14799,"▁집권":14800,"▁존재하는":14801,"지방의":14802,"▁따르면,":14803,"▁전라북도":14804,"▁의견을":14805,"▁객관":14806,"▁돼":14807,"고등":14808,"본은":14809,"▁대도시":14810,"▁지출":14811,"▁주된":14812,"▁신용":14813,"00만":14814,"▁산화":14815,"▁종로":14816,"▁169":14817,"학자들은":14818,"▁갑자기":14819,"▁에너지를":14820,"▁밥":14821,"들,":14822,"업체":14823,"지어":14824,"표는":14825,"품이":14826,"▁사전":14827,"▁나이":14828,"▁도달":14829,"▁효과가":14830,"▁할아버지는":14831,"▁마케팅":14832,"▁아카데미":14833,"▁빗":14834,"▁컨":14835,"고자":14836,"속에":14837,"적이며":14838,"풍을":14839,"▁수백":14840,"▁다니":14841,"▁동작":14842,"▁발명":14843,"▁성행":14844,"▁없게":14845,"▁초래":14846,"▁권력":14847,"▁1974년":14848,"▁언덕":14849,"▁베를":14850,"▁여기에서":14851,"▁르네":14852,"감독":14853,"동국":14854,"물·":14855,"민왕":14856,"사유":14857,"지자":14858,"칸,":14859,"▁매출":14860,"▁권두에":14861,"▁증손":14862,"▁2002년":14863,"▁충실":14864,"▁석회":14865,"▁순수":14866,"▁문화의":14867,"▁위치에":14868,"교육을":14869,"▁눈을":14870,"▁성공을":14871,"’이라는":14872,"▁하였으며,":14873,"금,":14874,"림프":14875,"목이":14876,"웨덴":14877,"처를":14878,"▁수의":14879,"▁기단":14880,"▁자기의":14881,"▁개교":14882,"▁영남":14883,"▁해산":14884,"▁선전":14885,"▁학력":14886,"▁김정":14887,"▁길고":14888,"▁풍자":14889,"▁줄어":14890,"▁전쟁이":14891,"▁6·25전쟁":14892,"▁v":14893,"▁뾰":14894,"느러미":14895,"드가":14896,"미터":14897,"이너":14898,"지며":14899,"진의":14900,"층은":14901,"했다가":14902,"▁수컷":14903,"▁부과":14904,"▁미치는":14905,"▁사용하고":14906,"▁사용되고":14907,"▁높다.\n":14908,"▁죽을":14909,"▁정도이다.\n":14910,"▁귀중한":14911,"▁품질":14912,"▁반란을":14913,"):":14914,"38":14915,"ab":14916,"m2":14917,"·신":14918,"▁톱":14919,"니즘":14920,"디어":14921,"라미":14922,"스·":14923,"율이":14924,"체적":14925,"치에":14926,"▁그렇게":14927,"▁유학":14928,"▁되며,":14929,"▁서사":14930,"▁소화":14931,"▁국무":14932,"▁권말에":14933,"▁본질":14934,"▁155":14935,"▁완공":14936,"▁문제에":14937,"▁누구":14938,"▁돌아온":14939,"▁로마의":14940,"▁완전한":14941,"(崔":14942,"▁곽":14943,"▁긍":14944,"▁멋":14945,"불(":14946,"아리":14947,"▁전신":14948,"▁소요":14949,"▁성리":14950,"▁왕조의":14951,"▁작품이":14952,"▁항일":14953,"▁병합":14954,"▁아버지의":14955,"▁제작된":14956,"▁일으켜":14957,"▁담당하는":14958,"신청서":14959,"im":14960,"▁얹":14961,"▁캘":14962,"계에서":14963,"단히":14964,"라의":14965,"사용":14966,"시절":14967,"투갈":14968,"▁사대":14969,"▁때마다":14970,"▁소나무":14971,")·조":14972,"▁당선":14973,"▁호남":14974,"▁처형":14975,"▁태평양":14976,"▁청구":14977,"▁미국에서":14978,"▁문화를":14979,"▁1936년":14980,"▁찾는":14981,"▁전체를":14982,"▁짓고":14983,"▁본격적으로":14984,"▁상세히":14985,"'이":14986,"국립":14987,"분은":14988,"암은":14989,"전으로":14990,"종으로":14991,"풍의":14992,"▁지주":14993,"▁원인이":14994,"▁분비":14995,"▁후원":14996,"▁형제":14997,"▁6,":14998,"▁평생":14999,"▁입장을":15000,"로서는":15001,"▁1983년":15002,"▁향해":15003,"▁1930년":15004,")』에":15005,"▁종교적":15006,"▁성격이":15007,"▁듯한":15008,"▁꾸준":15009,"놓고":15010,"버트":15011,"치,":15012,"▁이황":15013,"▁사상을":15014,"▁한다(":15015,"▁공유":15016,"▁소수":15017,"▁신비":15018,"▁도쿄":15019,"▁말라":15020,"▁재산을":15021,"▁[현황":15022,"▁최대의":15023,"▁집을":15024,"▁심장":15025,"▁이루어졌":15026,"▁밀접한":15027,"▁DNA":15028,"▁바뀌었다.\n":15029,"▁적극적으로":15030,"if":15031,"▁엮":15032,"▁전제":15033,"▁주재":15034,"▁다수의":15035,"▁국경":15036,"▁양쪽":15037,"▁예배":15038,"▁아니었다.\n":15039,"▁용어":15040,"▁하나인":15041,"km,":15042,"▁1930년대":15043,"▁나라에서":15044,"▁맞이":15045,"▁아래에":15046,".12":15047,"▁정신적":15048,"▁끊임":15049,"·지":15050,"나라는":15051,"네시아":15052,"락이":15053,"류인":15054,"미(":15055,"섰다.\n":15056,"역사":15057,"제1":15058,"▁그릇":15059,"▁지구의":15060,"▁것이라는":15061,"▁한강":15062,"▁일단":15063,"▁보충":15064,"▁아테네":15065,"▁경사":15066,"▁고안":15067,")·신":15068,"▁실업":15069,"▁결의":15070,"▁병과로":15071,"▁향상":15072,"▁잡고":15073,"▁글이다.\n":15074,"교육의":15075,"▁아직도":15076,"▁찰스":15077,"▁뾰족":15078,"▁[현황]":15079,"▁◇":15080,"로스":15081,"발을":15082,"전,":15083,"해주":15084,"현의":15085,"▁말로":15086,"▁두려":15087,"주의에":15088,"▁Ch":15089,"▁갑오":15090,"▁제임스":15091,"까요?\n":15092,"부인":15093,"액의":15094,"이센":15095,"자들에게":15096,"져서":15097,"파가":15098,"▁지불":15099,"▁기슭":15100,"▁유아":15101,"▁구실을":15102,"▁불상":15103,"▁우편":15104,"▁반대로":15105,"▁차이":15106,"▁임신":15107,"▁법인":15108,"▁밝은":15109,"▁애국":15110,"▁분야의":15111,"▁흥미":15112,"▁부동산":15113,"(宋":15114,"ow":15115,"▁띄":15116,"曰,":15117,"서울":15118,"순조":15119,"의정":15120,"태조":15121,"▁제일":15122,"하였으나,":15123,"▁신도":15124,"▁해에":15125,"▁별로":15126,"▁인구가":15127,"▁착용":15128,"▁가리키는":15129,"▁끌어":15130,"▁아미타":15131,"·동":15132,"대에서":15133,"루스":15134,"안전":15135,"언을":15136,"절차":15137,"제도의":15138,"▁기(":15139,"▁2가지":15140,"▁다듬":15141,"▁비유":15142,"▁구역":15143,"▁4편,":15144,"▁174":15145,"cm이다.\n":15146,"▁형태가":15147,"▁시간을":15148,"▁가까이":15149,"(M":15150,"건설":15151,"놀이":15152,"비와":15153,"화하는":15154,"▁지위를":15155,"▁전라도":15156,"▁고등학교":15157,")·유":15158,"▁영혼":15159,"▁분자":15160,"▁4)":15161,"▁독창":15162,"▁삼국시대":15163,"▁저서로는":15164,"갈명":15165,"누스":15166,"보물":15167,"심(":15168,"학이":15169,")·장":15170,"▁생식":15171,"▁형상":15172,"▁예이다.\n":15173,"▁이용하는":15174,"▁올린":15175,"▁곳이다.\n":15176,"▁중요하다.\n":15177,"▁염색":15178,"▁30일":15179,"▁러시아의":15180,"▁풀려":15181,"▁올라가":15182,"▁이외에도":15183,"1).\n":15184,"34":15185,"가격":15186,"각이":15187,"개로":15188,"기구":15189,"나의":15190,"니의":15191,"우고":15192,"인들에게":15193,"▁있다가":15194,"▁부설":15195,"▁비하여":15196,"▁하지만,":15197,"▁영조":15198,"▁48":15199,"▁많았다.\n":15200,"▁추상":15201,"▁15세기":15202,"▁백제의":15203,"▁석가":15204,"▁지속적으로":15205,"▁성균관":15206,"·우":15207,"’으로":15208,"▁몬":15209,"공의":15210,"수준":15211,"음에":15212,"작가":15213,"중에는":15214,"▁기독교":15215,"▁중등":15216,"▁바닷":15217,"▁무시":15218,"▁예산":15219,"▁초등학교":15220,"주의와":15221,"▁운송":15222,"▁청소년":15223,"▁생산된다.\n":15224,"▁가능하다.\n":15225,"▁이야기는":15226,"▁지정되었다.\n":15227,"리스토":15228,"▁고구려의":15229,"▁가리킨다.\n":15230,"▁억제":15231,"'은":15232,"90":15233,"나가":15234,"르가":15235,"보증":15236,"정부의":15237,"족과":15238,"추는":15239,"트리":15240,"▁관여":15241,"▁나왔다.\n":15242,"▁세속":15243,"▁저자의":15244,"▁지방에":15245,"▁1967년":15246,"▁맞아":15247,"▁깨달":15248,"▁주식회사":15249,"▁독자적인":15250,"광역시":15251,"'에":15252,"▁X":15253,"▁싫":15254,"▁쥐":15255,"〉가":15256,"교는":15257,"법」":15258,"▁대회":15259,"▁동경":15260,"▁서남":15261,"▁개입":15262,"▁성과를":15263,"▁남성":15264,"▁토대로":15265,"▁체육":15266,"▁서울대학교":15267,"▁1924년":15268,"▁설립된":15269,"▁아래로":15270,"▁오늘날의":15271,"▁타원형":15272,"iv":15273,"·도":15274,"▁셀":15275,"국사":15276,"또는":15277,"랑(":15278,"바르":15279,"숙한":15280,"제국":15281,"찬(":15282,"트워":15283,"▁자라는":15284,"▁주름":15285,"▁다수":15286,"▁모순":15287,"▁없고,":15288,"▁왕은":15289,"▁왕위에":15290,"▁1925년":15291,"▁빠르게":15292,"▁상대적으로":15293,"▁바꾸어":15294,"▁청동기":15295,"생은":15296,"스러":15297,"유사":15298,"초의":15299,"▁수확":15300,"▁보기":15301,"▁나뉜":15302,"▁의회":15303,"▁소실":15304,"▁예측":15305,"▁입증":15306,"▁161":15307,"▁2003년":15308,"▁손을":15309,"지역에서":15310,"▁나온다.\n":15311,"▁일어났":15312,"▁벼슬을":15313,"▁3·1":15314,"76":15315,"’가":15316,"▁g":15317,"▁셈":15318,"▁하였고,":15319,"금강":15320,"루(":15321,"모의":15322,"업무를":15323,"전망":15324,"족(":15325,"현대":15326,"▁1세":15327,"▁수업":15328,"▁지질":15329,"▁기름":15330,"▁것이고,":15331,"▁사용된":15332,"▁점은":15333,"▁1921년":15334,"▁암컷":15335,"▁상황에":15336,"▁파악할":15337,"▁유전자":15338,"·하":15339,"’라고":15340,"▁험":15341,"되거나":15342,"려서":15343,"마의":15344,"부사":15345,"었으나":15346,"재가":15347,"재는":15348,"친다.\n":15349,"▁대의":15350,"▁지진":15351,"▁기법":15352,"▁한다":15353,"▁한번":15354,"▁정통":15355,"▁주요한":15356,"▁동료":15357,"▁상주":15358,"▁만약":15359,"▁특수한":15360,"▁것이다.":15361,"▁법정":15362,"▁태도를":15363,"▁154":15364,"▁병원":15365,"▁인간이":15366,"▁육군":15367,"리포니아":15368,"▁Y":15369,"▁센":15370,"수산":15371,"인민":15372,"한(":15373,"▁대조":15374,"▁부활":15375,"▁고종":15376,"▁당대의":15377,"▁우리는":15378,"▁영향력을":15379,"▁줄기":15380,"▁만들기":15381,"▁자료이다.\n":15382,"▁사건을":15383,"▁느낌을":15384,"▁제외하고는":15385,"▁비타민":15386,"41":15387,"능력":15388,"씨가":15389,"인사":15390,"▁대원":15391,"▁일명":15392,"▁없다고":15393,"▁많고":15394,"▁출연":15395,"▁증상이":15396,"▁호소":15397,"▁있어,":15398,"▁1971년":15399,"▁맞추어":15400,"▁급여":15401,"▁희망":15402,"▁게임":15403,"관계에":15404,"▁발표했다.\n":15405,"▁땅에":15406,"▁출신의":15407,"▁필사본.":15408,"%의":15409,"(S":15410,"▁떼":15411,"공립":15412,"말을":15413,"불을":15414,"서원(":15415,"자동":15416,"품으로":15417,"호)·":15418,"▁수신":15419,"▁지명":15420,"▁등)":15421,"▁보증":15422,"하였으며":15423,"▁부서":15424,"▁구부":15425,"▁거행":15426,"▁예외":15427,"▁1966년":15428,"▁르네상":15429,"·조":15430,"고속도로":15431,"금속":15432,"는지":15433,"류로":15434,"머스":15435,"실(":15436,"정리":15437,"주,":15438,"주름":15439,"투스":15440,"형은":15441,"▁보완":15442,"▁고무":15443,"▁작고":15444,"▁무릎":15445,"▁강이":15446,"▁특이한":15447,"(1,":15448,"▁18일":15449,"주의는":15450,"▁1969년":15451,"▁도시는":15452,"▁힘이":15453,"▁작업을":15454,"ip":15455,"▁쏟":15456,"〉이":15457,"난다.\n":15458,"본을":15459,"분석":15460,"싱턴":15461,"점에":15462,"▁사후":15463,"▁인상":15464,"▁되기":15465,"▁양의":15466,"▁왕조":15467,"▁심각한":15468,"▁1940년":15469,"▁의미가":15470,
[...]
